memory_initialization_radix=16;
memory_initialization_vector=
F2,
FA,
09,
FC,
F0,
41,
02,
FA,
0C,
1F,
37,
F9,
06,
04,
7F,
42,
10,
31,
0C,
05,
E2,
4C,
4E,
B3,
F4,
64,
47,
F7,
50,
15,
47,
56,
46,
19,
72,
FE,
CB,
D0,
2D,
0C,
12,
43,
C3,
D2,
1F,
05,
0C,
D1,
E5,
EE,
0B,
34,
14,
01,
E3,
12,
EA,
E9,
13,
C0,
A9,
15,
F7,
F8;
