memory_initialization_radix=16;
memory_initialization_vector=
FF,
FF,
02,
03,
FF,
00,
03,
04,
FC,
03,
04,
02,
09,
04,
02,
FF,
03,
FE,
FE,
FF,
03,
FE,
FE,
FD,
FE,
01,
FE,
01,
04,
FD,
03,
00,
02,
06,
11,
0C,
0E,
0A,
0C,
19,
1A,
15,
EB,
0D,
23,
21,
1F,
14,
14,
12,
13,
0A,
03,
03,
02,
04,
FD,
FC,
06,
1D,
20,
05,
12,
18,
1A,
16,
1C,
2F,
0C,
E9,
F0,
F8,
01,
03,
10,
02,
0C,
17,
17,
17,
07,
FC,
02,
FF,
FE,
FE,
E4,
1E,
00,
00,
11,
FD,
07,
16,
06,
0B,
FA,
10,
07,
07,
15,
12,
0F,
0B,
F9,
0F,
0F,
28,
1A,
F2,
06,
03,
FC,
FD,
E7,
E4,
09,
04,
F9,
F1,
03,
11,
FE,
F7,
F6,
F5,
FC,
02,
0E,
10,
06,
FD,
FF,
EE,
F6,
F4,
EE,
F4,
0E,
1E,
FD,
FE,
07,
EA,
0F,
E8,
F1,
FE,
06,
F5,
F1,
E9,
EC,
FB,
00,
01,
08,
0D,
04,
09,
F8,
00,
F0,
EA,
F4,
06,
1A,
17,
02,
03,
0D,
1B,
19,
FF,
02,
01,
F9,
F0,
F1,
FA,
FB,
F0,
F0,
FB,
FF,
06,
01,
06,
FC,
09,
FE,
F0,
EB,
03,
EF,
13,
FE,
13,
1C,
22,
19,
FF,
09,
06,
FD,
02,
FF,
FE,
F9,
F9,
E8,
F8,
F5,
01,
0C,
06,
FE,
07,
02,
F5,
FF,
03,
E5,
17,
1D,
15,
0F,
1C,
1B,
10,
0D,
03,
01,
0D,
09,
04,
0E,
0A,
05,
00,
FF,
FF,
FE,
0B,
0A,
F7,
FF,
05,
FE,
ED,
FE,
F9,
09,
1B,
11,
29,
16,
16,
FD,
FA,
FE,
08,
09,
07,
17,
17,
1B,
03,
FB,
F4,
F4,
08,
13,
01,
FE,
15,
0E,
05,
FD,
03,
0C,
07,
18,
0E,
12,
0F,
08,
06,
08,
0B,
08,
12,
0C,
1D,
1F,
05,
FB,
F8,
FC,
F7,
01,
F7,
06,
16,
0F,
DE,
F6,
09,
0D,
26,
F0,
0F,
FC,
01,
09,
1E,
0D,
0F,
09,
17,
10,
19,
12,
FB,
EC,
E1,
EF,
FA,
F5,
F9,
02,
10,
2A,
FD,
FE,
12,
02,
06,
EE,
02,
F6,
FB,
00,
0D,
01,
0D,
FA,
0C,
00,
01,
FA,
F7,
F0,
F5,
F6,
F1,
F0,
F2,
09,
14,
2E,
17,
05,
22,
EA,
07,
02,
F9,
EF,
F4,
06,
F7,
FA,
01,
02,
07,
F9,
F9,
FB,
FE,
FB,
EE,
03,
FE,
EE,
FA,
12,
17,
29,
21,
16,
0E,
FF,
04,
09,
DF,
DD,
FF,
06,
01,
01,
01,
0C,
19,
0A,
08,
FB,
01,
EF,
FB,
04,
0A,
F8,
02,
0A,
0C,
15,
1F,
22,
0F,
06,
FD,
FA,
EE,
E7,
01,
06,
14,
06,
0E,
0C,
0E,
01,
01,
0C,
05,
F1,
F5,
0C,
0B,
02,
04,
04,
0B,
1C,
24,
EA,
15,
02,
FA,
E6,
E2,
F5,
03,
09,
1C,
1A,
25,
1A,
10,
03,
F2,
04,
08,
FB,
07,
FB,
03,
FE,
06,
06,
11,
05,
14,
08,
12,
00,
F7,
E7,
E5,
FC,
02,
07,
08,
0D,
16,
11,
09,
FE,
FC,
04,
F5,
FE,
01,
F8,
02,
04,
04,
10,
18,
1F,
1D,
10,
21,
17,
FA,
E0,
E0,
F6,
F9,
01,
05,
09,
0F,
0A,
F7,
FB,
F6,
EC,
F9,
FC,
05,
04,
F9,
FA,
FF,
0B,
18,
0B,
02,
12,
EC,
F5,
15,
EA,
D7,
F9,
F8,
00,
08,
0A,
0D,
01,
F2,
F4,
F6,
F1,
F7,
FE,
08,
F9,
FB,
FF,
09,
1D,
04,
E4,
E7,
07,
F1,
02,
10,
03,
ED,
F6,
FD,
F3,
13,
0E,
09,
11,
01,
02,
FD,
F7,
FD,
E9,
E8,
F5,
F7,
FD,
07,
FC,
EC,
D2,
E5,
F4,
F3,
F4,
04,
12,
07,
01,
EA,
05,
0C,
03,
10,
12,
10,
08,
09,
05,
FD,
FE,
02,
F5,
FB,
EC,
E6,
F5,
DE,
C9,
E7,
1F,
02,
EE,
F4,
06,
FB,
F9,
F8,
12,
12,
06,
09,
10,
11,
15,
0C,
07,
07,
00,
FA,
F7,
F1,
E5,
E4,
E0,
D9,
D4,
F0,
EC,
08,
02,
FC,
E8,
D9,
FC,
FB,
F6,
04,
F4,
F9,
FC,
FC,
05,
03,
FE,
01,
FE,
FE,
F8,
00,
EB,
E8,
F6,
E5,
DA,
F9,
DE,
02,
FC,
FF,
FF,
E9,
FE,
07,
FA,
F8,
FE,
F1,
F8,
F9,
05,
00,
F3,
FA,
09,
F8,
04,
FF,
FC,
EE,
E4,
E2,
F5,
FB,
FD,
FE,
01,
FC,
E7,
0F,
04,
E7,
FD,
FE,
F7,
F6,
0A,
08,
FE,
EF,
FE,
02,
00,
08,
F6,
02,
F8,
F5,
E5,
CF,
F2,
03,
07,
FD,
02,
FE,
FD,
FD,
DC,
CF,
DC,
F4,
12,
08,
04,
04,
08,
18,
05,
FD,
F7,
F8,
07,
13,
F8,
09,
11,
06,
0C,
05,
02,
03,
01,
FD,
01,
02,
15,
1F,
02,
F7,
00,
12,
11,
02,
0C,
1C,
1D,
01,
F9,
13,
04,
0C,
06,
19,
1C,
21,
03,
FC,
02,
02;
