memory_initialization_radix=16;
memory_initialization_vector=
01,
FD,
04,
02,
FC,
02,
FF,
01,
03,
00,
02,
01,
FD,
FC,
FE,
FE,
FE,
00,
FE,
00,
FF,
00,
FD,
04,
FE,
FE,
04,
03,
00,
01,
01,
FD,
FC,
FD,
03,
02,
FE,
00,
F0,
EA,
DF,
F7,
12,
1A,
F7,
ED,
F0,
F4,
F4,
02,
FF,
03,
FE,
00,
03,
01,
FF,
04,
FD,
02,
FF,
F3,
F8,
FF,
01,
FC,
02,
F9,
F0,
FE,
FA,
09,
04,
08,
07,
1D,
1B,
FC,
F5,
04,
F8,
FB,
00,
FF,
01,
FF,
1A,
1E,
12,
0D,
0C,
10,
2C,
0E,
1B,
14,
13,
00,
07,
1A,
14,
0D,
09,
FC,
15,
11,
FF,
06,
FB,
F3,
EA,
FE,
FE,
04,
1B,
28,
13,
07,
06,
19,
22,
28,
2E,
16,
16,
12,
1C,
20,
1E,
13,
13,
12,
16,
06,
04,
F1,
1A,
1F,
16,
0A,
FE,
02,
20,
1D,
18,
FC,
0D,
1A,
FD,
0B,
12,
0D,
0B,
06,
FF,
03,
0A,
06,
01,
15,
20,
FF,
03,
01,
0D,
2A,
18,
0D,
03,
0D,
0C,
F9,
02,
04,
18,
0A,
05,
0D,
13,
05,
FF,
02,
06,
08,
FE,
F6,
F5,
FB,
06,
F3,
FB,
07,
01,
08,
1D,
F6,
FA,
05,
E4,
F3,
10,
1F,
0D,
09,
0D,
02,
0D,
06,
00,
F7,
FA,
01,
00,
FA,
F4,
02,
05,
F6,
FC,
F8,
F2,
10,
00,
F1,
F5,
D7,
F0,
FD,
15,
0E,
05,
07,
02,
04,
0B,
FE,
FD,
02,
FC,
FD,
FB,
F8,
FC,
02,
04,
02,
0E,
F4,
F0,
15,
04,
01,
E9,
DA,
0D,
01,
FC,
11,
09,
04,
13,
02,
04,
FC,
EF,
F9,
08,
05,
06,
FD,
FF,
07,
01,
02,
04,
E2,
CA,
EE,
0B,
03,
EB,
D9,
FB,
05,
FD,
01,
F6,
FC,
00,
FB,
FB,
F2,
FE,
06,
10,
0A,
11,
19,
0F,
16,
07,
F4,
E2,
DE,
C8,
E4,
09,
EA,
E2,
E3,
D9,
FC,
FF,
E6,
DC,
E2,
F0,
F1,
F3,
FE,
18,
19,
1E,
19,
1B,
1E,
22,
0B,
FC,
ED,
D4,
D5,
E6,
F6,
0F,
E7,
F2,
E4,
DB,
FF,
F7,
DE,
E9,
DF,
E6,
F1,
08,
1C,
25,
22,
28,
1E,
14,
11,
0D,
01,
E9,
E4,
DC,
E2,
EE,
EE,
07,
F3,
17,
F0,
E4,
02,
F0,
DE,
E5,
E6,
F1,
FC,
FE,
0F,
1D,
21,
23,
1A,
11,
0D,
03,
F5,
E1,
DD,
DC,
F2,
F8,
ED,
FD,
EC,
FF,
0A,
E1,
F3,
E4,
BB,
C9,
E1,
EE,
E7,
E0,
F8,
08,
19,
2B,
0B,
03,
03,
F7,
EB,
F0,
FB,
ED,
F8,
01,
FD,
02,
F1,
FA,
07,
24,
DD,
ED,
CC,
DF,
D5,
E5,
CF,
C9,
D7,
E9,
0F,
27,
FD,
F9,
F1,
F2,
F7,
02,
00,
06,
0F,
16,
1F,
16,
FF,
E4,
09,
23,
ED,
FB,
EC,
E9,
EE,
E8,
DD,
C4,
BD,
CD,
F6,
00,
EF,
EF,
F1,
08,
05,
F7,
F5,
F8,
23,
31,
24,
0E,
FE,
FD,
11,
06,
FE,
09,
00,
05,
06,
FC,
E8,
C5,
B5,
C8,
E0,
EB,
EB,
F5,
08,
07,
15,
04,
04,
F4,
13,
05,
D9,
E8,
F6,
E5,
17,
0B,
21,
0F,
12,
11,
06,
00,
F7,
E1,
E8,
D2,
E6,
EC,
F2,
0E,
15,
FE,
11,
0D,
F8,
F5,
05,
FB,
F0,
DD,
DF,
10,
E7,
FA,
25,
12,
1D,
0F,
0A,
FE,
0F,
09,
FE,
EE,
F3,
F9,
06,
15,
08,
07,
09,
05,
09,
F8,
02,
EE,
09,
F4,
E1,
FC,
F7,
EB,
16,
21,
17,
1A,
06,
08,
0F,
10,
0A,
FD,
FE,
07,
02,
0B,
07,
11,
04,
1C,
0F,
02,
00,
F4,
EB,
FE,
12,
0D,
F7,
F6,
02,
12,
14,
1D,
0B,
0A,
01,
08,
09,
00,
06,
0C,
0F,
FE,
07,
0A,
0C,
11,
08,
01,
DB,
D4,
D8,
ED,
FC,
0D,
16,
FE,
05,
0A,
FA,
02,
FC,
00,
EE,
02,
0E,
FA,
09,
0F,
04,
04,
14,
13,
16,
1F,
10,
0F,
CF,
D4,
E3,
F7,
FF,
FC,
00,
21,
17,
0B,
09,
03,
0B,
07,
FB,
0E,
09,
06,
0F,
0C,
0E,
08,
0F,
21,
1C,
15,
10,
F4,
C9,
F1,
EE,
03,
04,
01,
01,
FE,
10,
ED,
F2,
04,
FF,
00,
0E,
0D,
0D,
10,
05,
05,
F0,
01,
FA,
FD,
FB,
FC,
01,
0E,
FF,
E0,
E1,
FC,
FE,
00,
01,
0A,
F3,
F1,
00,
01,
F5,
0B,
1D,
19,
FA,
10,
17,
F7,
E8,
F6,
F6,
00,
04,
16,
19,
0F,
09,
0D,
FA,
02,
FC,
03,
02,
01,
FF,
FF,
E0,
D8,
F6,
E5,
F0,
FB,
E4,
D6,
C7,
DB,
F4,
FD,
03,
07,
DB,
EE,
11,
02,
DD,
01,
02,
FD,
03,
02,
FC,
00,
02,
02,
FD,
F2,
F9,
F4,
D3,
D1,
D4,
CF,
BA,
DB,
08,
F6,
BF,
D1,
D4,
DB,
F6,
FA,
02,
01,
01,
02,
FC;
