memory_initialization_radix=16;
memory_initialization_vector=
01,
00,
04,
FF,
02,
00,
01,
04,
00,
03,
01,
FC,
FF,
01,
00,
FF,
02,
00,
FE,
FC,
FD,
FD,
00,
02,
FF,
FC,
03,
FF,
03,
04,
00,
FF,
01,
01,
FD,
FE,
01,
FE,
00,
0E,
0B,
08,
F2,
1E,
22,
15,
EF,
F1,
FC,
01,
02,
00,
03,
FD,
00,
01,
03,
FD,
00,
20,
1C,
FB,
02,
06,
FC,
03,
10,
05,
11,
05,
F1,
F8,
0C,
FE,
FD,
F1,
F8,
F8,
F8,
04,
09,
04,
03,
FE,
03,
02,
1A,
1C,
12,
EA,
F3,
FD,
F8,
03,
01,
03,
0A,
07,
F9,
04,
13,
18,
09,
F1,
FA,
F7,
EE,
F9,
FE,
14,
F3,
01,
04,
F8,
13,
F3,
EC,
DE,
FC,
F6,
F4,
06,
03,
1C,
14,
FF,
11,
17,
16,
1A,
13,
FA,
E9,
D9,
E2,
E7,
EA,
F5,
07,
ED,
02,
FD,
08,
13,
EC,
D6,
F4,
F4,
E6,
E7,
00,
0A,
07,
0F,
08,
13,
08,
06,
02,
01,
03,
FD,
EB,
D7,
DD,
F8,
E8,
E3,
02,
EB,
ED,
EE,
DE,
D4,
EC,
E6,
E8,
F6,
0F,
10,
12,
13,
13,
11,
0E,
08,
09,
FD,
FA,
FB,
F9,
F5,
D1,
EC,
EC,
F5,
FF,
E0,
F3,
E3,
E8,
CD,
DD,
E1,
F6,
F9,
0F,
04,
12,
14,
14,
16,
17,
04,
0E,
FF,
F7,
FC,
05,
01,
E2,
FA,
ED,
F4,
1A,
FB,
F6,
07,
ED,
D2,
F5,
F0,
F8,
FA,
0C,
06,
0B,
10,
16,
12,
25,
1B,
1A,
11,
03,
03,
0D,
0E,
06,
FB,
06,
09,
FA,
F2,
FE,
04,
D8,
DA,
FA,
F7,
F9,
04,
10,
F9,
FD,
0A,
0E,
0E,
1A,
19,
17,
19,
08,
01,
04,
0A,
1A,
14,
05,
E4,
FC,
FA,
F4,
FC,
E8,
F1,
03,
FD,
FD,
F9,
FE,
FB,
FD,
FE,
14,
05,
0B,
14,
10,
0D,
07,
08,
0E,
1C,
09,
FF,
09,
FD,
F5,
12,
F7,
11,
05,
FE,
03,
03,
FB,
E6,
F4,
F4,
E9,
03,
16,
06,
00,
06,
06,
09,
14,
06,
0D,
15,
28,
36,
26,
11,
FC,
F0,
00,
16,
0B,
FC,
0A,
F9,
E8,
F7,
F0,
F3,
F5,
0B,
12,
F9,
F8,
08,
FD,
0F,
09,
05,
F9,
0A,
FE,
05,
0C,
02,
18,
F4,
F7,
27,
06,
02,
02,
03,
01,
03,
FD,
FF,
05,
0E,
07,
00,
FA,
FC,
FC,
01,
01,
FB,
F9,
F7,
F2,
F8,
07,
06,
F5,
F4,
EF,
0C,
05,
07,
0E,
03,
FB,
FD,
03,
07,
05,
12,
01,
FC,
F8,
F7,
FD,
F7,
F7,
00,
F5,
F1,
F9,
EB,
10,
0E,
F7,
F6,
DA,
FC,
07,
18,
0A,
04,
06,
07,
05,
03,
06,
03,
F8,
F5,
FF,
F5,
FA,
F0,
F5,
F6,
E4,
F1,
13,
F1,
F3,
15,
F9,
F8,
EF,
FB,
0D,
16,
0D,
08,
04,
0C,
15,
07,
04,
F5,
EE,
EF,
FC,
F9,
F4,
EC,
ED,
E2,
F0,
F7,
06,
EF,
FD,
13,
02,
F4,
E8,
02,
09,
0C,
14,
06,
0F,
0D,
0F,
06,
05,
F0,
F0,
F6,
FB,
FC,
EC,
F6,
F3,
E4,
F3,
F3,
FD,
FF,
FC,
12,
27,
FD,
E5,
F3,
F9,
04,
14,
11,
0D,
0A,
0C,
01,
E6,
EE,
F4,
FA,
EF,
FB,
EC,
00,
FC,
F3,
05,
FF,
0A,
0B,
F6,
F9,
02,
09,
EB,
DD,
FC,
FE,
05,
05,
05,
07,
06,
E3,
F7,
06,
EF,
F2,
F8,
00,
08,
0E,
08,
FD,
20,
1F,
09,
0C,
19,
F3,
02,
17,
04,
F0,
0F,
17,
05,
07,
07,
F8,
F8,
F2,
FD,
04,
F5,
FD,
FF,
00,
07,
0E,
0B,
09,
17,
21,
1D,
24,
08,
FC,
05,
0E,
10,
12,
19,
07,
1E,
12,
FE,
00,
F8,
F8,
F9,
F8,
F6,
F8,
00,
02,
00,
06,
03,
08,
09,
17,
16,
15,
20,
06,
05,
FB,
0A,
28,
11,
15,
1C,
13,
11,
0C,
F6,
F7,
FD,
06,
09,
00,
01,
04,
06,
FA,
00,
F1,
02,
12,
1A,
0C,
EC,
02,
FC,
00,
15,
13,
F9,
02,
F1,
F9,
0C,
02,
04,
05,
05,
0C,
04,
04,
12,
0B,
FF,
FC,
F9,
F9,
18,
1C,
36,
03,
DB,
00,
FF,
01,
F9,
E5,
F0,
E9,
E1,
EA,
FC,
FF,
0E,
09,
16,
12,
04,
03,
05,
05,
0F,
0D,
0D,
05,
00,
15,
1F,
FC,
02,
00,
02,
02,
1B,
DE,
D1,
E7,
02,
FA,
FF,
FF,
00,
FB,
04,
09,
03,
06,
11,
0F,
06,
1E,
1E,
0B,
EC,
F7,
07,
0D,
06,
01,
02,
01,
04,
0C,
03,
0C,
03,
09,
09,
0E,
17,
16,
19,
19,
18,
0A,
1A,
1D,
1F,
16,
2F,
1E,
F8,
19,
17,
F4,
04,
FC,
02,
FD,
00,
FE,
E5,
D4,
05,
0A,
0F,
05,
06,
0F,
06,
FB,
20,
0E,
12,
FF,
0D,
13,
00,
F5,
EE,
DE,
04,
01,
FC,
FF;
