memory_initialization_radix=16;
memory_initialization_vector=
F3,
1F,
F9,
1C,
EC,
0F,
2C,
E0,
D4,
F5,
09,
1B,
0B,
04,
32,
1B,
19,
05,
A9,
05,
EF,
14,
1A,
DF,
04,
2B,
0A,
F0,
14,
13,
1F,
0D,
EC,
CC,
2E,
E5,
09,
02,
F3,
F6,
0B,
FB,
BE,
B5,
20,
F9,
0E,
05,
E2,
05,
F4,
FD,
1F,
14,
9D,
08,
07,
EC,
05,
D8,
F5,
26,
81,
18;
