memory_initialization_radix=16;
memory_initialization_vector=
FE,
01,
01,
01,
FC,
FD,
FD,
FD,
FD,
03,
FE,
02,
01,
02,
02,
FD,
FF,
FE,
04,
01,
02,
03,
00,
01,
FC,
FD,
FC,
03,
04,
01,
FC,
01,
03,
FF,
FE,
02,
FD,
FF,
FB,
01,
0B,
0A,
20,
14,
D7,
D0,
F8,
F5,
F7,
0B,
09,
03,
02,
02,
02,
FD,
FE,
02,
FF,
E2,
E0,
06,
15,
07,
EB,
DD,
E4,
F6,
03,
0D,
EC,
FF,
F0,
F7,
01,
FE,
E6,
DA,
E4,
DA,
E7,
F2,
02,
04,
FF,
00,
1B,
FD,
1E,
F7,
F7,
E9,
EB,
05,
FF,
FD,
0F,
F5,
FA,
FC,
EC,
EF,
F4,
F6,
04,
0B,
FE,
F3,
F3,
08,
FA,
03,
FD,
06,
0A,
1E,
E0,
FD,
ED,
D4,
C1,
CE,
DA,
FB,
FD,
0C,
0E,
0A,
ED,
EC,
F2,
F0,
F3,
0C,
07,
14,
17,
12,
10,
EA,
FE,
04,
E6,
1A,
FF,
18,
07,
F4,
D5,
EC,
F2,
FE,
10,
1D,
1D,
08,
F9,
05,
EC,
E8,
EB,
EB,
F6,
04,
FD,
F2,
06,
F0,
FD,
F0,
03,
0F,
0C,
06,
01,
EE,
F1,
EC,
F6,
11,
0C,
11,
0F,
FE,
F7,
FA,
FC,
FE,
FE,
ED,
00,
0E,
0D,
FD,
0B,
F3,
02,
E5,
F7,
17,
FB,
ED,
E3,
E4,
DB,
E8,
00,
11,
15,
0D,
08,
F8,
FA,
00,
FF,
FD,
FC,
F6,
02,
16,
03,
01,
12,
EE,
F2,
E7,
FB,
18,
E7,
CF,
D7,
DF,
D4,
E7,
F5,
06,
0F,
0B,
0A,
13,
06,
03,
0F,
04,
05,
0A,
07,
01,
29,
15,
00,
12,
00,
1A,
EB,
E2,
E5,
C0,
E2,
EB,
E0,
EF,
F3,
10,
0F,
0B,
14,
12,
06,
0F,
11,
0C,
0E,
09,
04,
05,
1D,
22,
16,
F9,
00,
13,
EB,
E3,
DF,
C3,
D7,
DA,
D5,
DB,
F3,
08,
0F,
0C,
0B,
18,
0C,
04,
08,
15,
15,
0F,
17,
1A,
2D,
34,
1B,
F2,
FD,
E6,
15,
01,
F9,
D8,
E2,
D3,
D4,
E8,
EF,
FB,
07,
0E,
0E,
13,
09,
0E,
14,
0A,
FC,
FF,
00,
18,
29,
2A,
2E,
03,
01,
04,
27,
0F,
02,
E5,
DE,
DC,
EA,
F7,
F5,
09,
18,
17,
18,
20,
FA,
F9,
05,
FB,
F3,
E5,
E0,
F1,
E1,
12,
25,
E8,
07,
FF,
04,
0B,
FB,
E0,
D0,
DF,
F0,
09,
13,
1E,
1E,
10,
17,
1C,
FF,
FA,
F3,
F6,
01,
F0,
D3,
CD,
D4,
FE,
03,
E5,
07,
11,
09,
0A,
F1,
F4,
DA,
D7,
EF,
05,
13,
13,
1A,
1A,
14,
10,
00,
FF,
FC,
F4,
0A,
04,
E4,
DB,
FB,
03,
E0,
F6,
06,
10,
F7,
EB,
02,
FF,
FD,
F2,
E9,
E5,
FA,
F7,
1E,
10,
12,
12,
08,
0E,
0F,
F7,
07,
FC,
E7,
FC,
F2,
FB,
E0,
E9,
EB,
08,
F2,
F9,
1F,
16,
F7,
D5,
DB,
D3,
E1,
E9,
0A,
14,
0D,
15,
10,
17,
0B,
F1,
F1,
CE,
C6,
CE,
E7,
E5,
ED,
01,
01,
16,
F1,
F9,
16,
01,
FD,
F4,
DE,
EE,
E3,
F1,
F6,
FD,
06,
1A,
1F,
1D,
08,
EF,
E1,
C7,
D1,
F1,
FF,
0C,
0E,
F8,
F6,
F7,
09,
DE,
0C,
07,
04,
01,
FD,
F0,
ED,
FC,
01,
07,
19,
1A,
1B,
15,
03,
DF,
D2,
C2,
CD,
E5,
01,
1F,
1E,
00,
10,
08,
0B,
ED,
FF,
00,
FF,
07,
0A,
F7,
ED,
FE,
0A,
10,
18,
1B,
1C,
10,
0A,
D8,
C1,
C4,
D6,
F2,
11,
2B,
05,
05,
02,
1A,
F8,
E5,
02,
09,
06,
FC,
07,
03,
01,
05,
06,
11,
12,
0C,
15,
1A,
F0,
D3,
AC,
BC,
DF,
EF,
0D,
12,
12,
15,
0C,
E1,
E4,
F1,
F8,
07,
0D,
0A,
06,
04,
02,
09,
07,
04,
0A,
09,
0B,
02,
DE,
BC,
B5,
BF,
CE,
DC,
04,
06,
E3,
03,
08,
04,
E5,
F1,
FA,
FE,
05,
08,
04,
04,
0F,
0F,
16,
07,
0D,
04,
02,
F4,
CC,
BC,
A6,
CE,
D9,
E8,
FD,
E3,
01,
FD,
FF,
03,
D4,
E3,
FD,
07,
01,
FF,
FE,
03,
07,
00,
06,
0A,
0E,
01,
EF,
E0,
CC,
C7,
B1,
D1,
EF,
F6,
05,
F6,
01,
FE,
FE,
FE,
08,
00,
FD,
1C,
03,
09,
FD,
FE,
00,
FD,
0E,
15,
FC,
F0,
E1,
D3,
C7,
C2,
D8,
D7,
FE,
0A,
00,
02,
FF,
FF,
03,
00,
FC,
15,
0E,
19,
DF,
E9,
F0,
FD,
F8,
08,
FC,
E6,
DB,
E8,
E2,
D3,
D8,
D5,
E5,
EA,
F6,
0F,
FE,
01,
FF,
FE,
01,
00,
FE,
09,
31,
30,
24,
FD,
FB,
08,
00,
1C,
25,
08,
FF,
08,
21,
24,
0A,
F1,
F9,
07,
0E,
04,
08,
01,
03,
FF,
FC,
03,
02,
00,
F4,
ED,
16,
11,
10,
0A,
1B,
19,
0F,
10,
32,
2B,
11,
11,
1E,
09,
03,
00,
FF,
00,
00,
FE,
FE,
00;
