memory_initialization_radix=16;
memory_initialization_vector=
03,
FE,
FE,
02,
FE,
FF,
02,
00,
FE,
01,
03,
FE,
02,
05,
02,
04,
02,
FD,
01,
03,
FC,
FE,
FC,
03,
FC,
02,
00,
FF,
FC,
01,
03,
FE,
04,
05,
04,
05,
05,
06,
FB,
01,
0E,
F4,
F2,
0C,
12,
13,
0B,
0A,
07,
0A,
07,
03,
03,
03,
04,
02,
FC,
03,
06,
06,
07,
06,
08,
0A,
08,
0A,
19,
22,
37,
21,
16,
25,
10,
F6,
F0,
14,
1D,
13,
0E,
11,
0B,
0B,
FF,
01,
02,
01,
19,
F1,
DF,
12,
18,
1B,
32,
28,
34,
32,
26,
2C,
1E,
19,
12,
FD,
01,
ED,
E8,
FA,
0D,
0C,
05,
00,
0B,
04,
FF,
0B,
20,
02,
06,
09,
05,
10,
26,
13,
0E,
1A,
1C,
1B,
1C,
21,
1F,
0D,
03,
0B,
02,
FA,
01,
D8,
E0,
F9,
13,
13,
FC,
FC,
23,
EE,
06,
F3,
F5,
04,
EF,
F4,
F3,
F4,
FB,
09,
0E,
14,
0E,
07,
12,
0E,
0D,
08,
FD,
F7,
FC,
0A,
1D,
0F,
FD,
0F,
0E,
10,
02,
EF,
E8,
EB,
E7,
F2,
FF,
F4,
F8,
03,
01,
0E,
0F,
0E,
12,
03,
05,
07,
FB,
03,
01,
17,
FC,
1B,
FE,
1D,
F7,
F8,
0A,
F5,
F1,
F8,
F6,
06,
FB,
FB,
01,
00,
0C,
15,
0F,
0A,
17,
11,
07,
08,
FD,
F8,
00,
06,
F6,
19,
0C,
0C,
EC,
07,
0B,
FB,
FE,
02,
FA,
FE,
01,
FC,
FC,
02,
03,
01,
0A,
0D,
14,
20,
13,
0E,
1B,
04,
F0,
EB,
08,
09,
FF,
FD,
0C,
17,
11,
05,
0E,
0B,
11,
FA,
06,
F4,
EC,
ED,
EF,
F8,
FE,
07,
03,
21,
1B,
1B,
22,
15,
DE,
F5,
05,
F0,
FD,
09,
F6,
13,
18,
FF,
09,
07,
01,
F4,
FC,
F6,
E3,
E8,
FC,
EC,
FE,
03,
11,
1B,
1F,
1A,
23,
16,
D7,
CF,
FF,
10,
00,
11,
01,
19,
22,
01,
FF,
02,
FC,
FA,
F6,
F6,
E3,
F9,
07,
FE,
FD,
04,
0D,
15,
1A,
0D,
0F,
06,
F0,
F4,
02,
1A,
03,
03,
EB,
0B,
0D,
FC,
FF,
F1,
F5,
04,
FD,
F8,
EF,
03,
15,
02,
FB,
08,
FB,
07,
09,
0D,
FB,
F9,
FA,
FC,
07,
2A,
16,
F5,
F5,
1B,
F6,
F9,
FF,
EE,
08,
FA,
EC,
F0,
F5,
12,
1B,
09,
FD,
F9,
FF,
FD,
03,
FB,
EE,
ED,
F5,
00,
0C,
0A,
FB,
07,
19,
1B,
F0,
F2,
03,
FA,
FE,
F2,
F5,
02,
0B,
1E,
17,
0B,
FF,
FB,
F3,
EC,
F6,
FB,
FA,
E9,
EF,
0B,
1B,
07,
FE,
0D,
17,
F3,
00,
06,
FF,
F7,
FE,
F3,
EE,
07,
01,
16,
14,
FF,
00,
F1,
F5,
EA,
E7,
F6,
08,
F8,
F9,
FC,
03,
0A,
00,
10,
0D,
00,
19,
10,
F9,
08,
00,
0B,
0B,
10,
06,
0D,
07,
F4,
FB,
FA,
F8,
ED,
DE,
F1,
03,
0C,
02,
F2,
F2,
06,
FC,
14,
FB,
03,
19,
07,
F4,
FF,
00,
09,
0E,
0A,
0E,
0F,
03,
F0,
FC,
FE,
F5,
F4,
ED,
ED,
F4,
06,
00,
F3,
09,
0D,
0E,
11,
FF,
0D,
F6,
02,
F6,
F4,
F6,
08,
10,
F5,
F7,
09,
F8,
04,
05,
06,
05,
F4,
ED,
EC,
FA,
07,
FF,
F6,
01,
FB,
0C,
01,
F3,
FA,
FB,
09,
05,
09,
FA,
0B,
FC,
E2,
F0,
FE,
FA,
FE,
00,
0A,
08,
F5,
EF,
EE,
05,
0F,
06,
01,
03,
FD,
03,
EF,
EC,
07,
06,
03,
12,
15,
FB,
FE,
F0,
EE,
FB,
02,
07,
05,
FE,
00,
0C,
03,
06,
00,
04,
0A,
FC,
FE,
02,
11,
0B,
FE,
0C,
16,
FB,
EF,
15,
1B,
FD,
ED,
F5,
FA,
06,
11,
0E,
02,
09,
04,
09,
09,
01,
05,
0A,
05,
E1,
FA,
0E,
FF,
04,
0F,
13,
F9,
07,
09,
0D,
0D,
08,
FA,
FB,
FD,
02,
10,
0D,
0D,
08,
06,
00,
06,
04,
05,
F5,
FB,
EA,
F6,
F5,
FE,
FD,
04,
24,
00,
F6,
FC,
F5,
FD,
04,
FC,
00,
08,
07,
15,
04,
0D,
0D,
17,
11,
0E,
0D,
00,
19,
09,
F2,
F2,
FB,
FF,
FE,
01,
FB,
0F,
0A,
F5,
F4,
EE,
F3,
F7,
01,
FD,
F8,
FE,
FA,
0A,
1E,
14,
05,
FF,
F8,
09,
03,
F9,
F5,
FA,
FE,
FF,
01,
FC,
FF,
EA,
E6,
FE,
14,
08,
1A,
13,
0A,
FA,
10,
0A,
0A,
07,
18,
0A,
FB,
0B,
09,
E4,
D8,
DC,
F2,
FC,
FF,
FE,
FE,
02,
04,
FE,
E7,
E6,
F1,
0F,
11,
00,
0D,
0B,
EF,
F8,
0D,
FB,
FD,
16,
1C,
16,
16,
EB,
E3,
F3,
EA,
F8,
02,
FE,
03,
FC,
00,
01,
05,
F9,
10,
17,
14,
04,
06,
05,
F5,
FF,
10,
13,
22,
22,
01,
FF,
F8,
F5,
F0,
05,
01,
FF,
00,
02;
