memory_initialization_radix=16;
memory_initialization_vector=
01,
01,
04,
FC,
FD,
FC,
FC,
FD,
04,
FD,
FC,
FD,
F6,
FF,
03,
FF,
FF,
03,
02,
03,
FD,
FD,
02,
01,
02,
03,
00,
01,
FF,
FD,
FE,
02,
01,
FB,
F0,
ED,
EE,
F4,
F6,
F6,
F2,
EB,
F8,
ED,
EF,
F4,
F9,
F9,
F1,
F8,
F5,
F3,
02,
FC,
03,
FC,
FE,
00,
01,
FB,
F6,
FE,
EF,
E9,
E5,
D3,
DC,
E3,
CD,
BF,
B1,
D2,
D8,
F9,
0B,
07,
07,
F6,
F3,
F1,
F9,
FB,
04,
04,
FD,
03,
16,
01,
FF,
06,
08,
EF,
DA,
D5,
D5,
E6,
EA,
EF,
EC,
F3,
EE,
07,
12,
FB,
01,
15,
10,
0C,
FC,
E9,
E3,
FF,
FD,
05,
19,
24,
0E,
E5,
EE,
F2,
E4,
EF,
FB,
03,
FF,
F2,
FA,
05,
0F,
0C,
11,
09,
00,
09,
15,
15,
20,
1F,
24,
02,
02,
04,
08,
F0,
F5,
FE,
06,
FD,
F9,
08,
F8,
0E,
0F,
04,
FF,
FA,
04,
05,
ED,
E9,
F0,
F0,
05,
F6,
0C,
2E,
1B,
00,
03,
01,
19,
FA,
0D,
11,
09,
00,
0E,
0A,
0B,
15,
13,
0C,
03,
02,
08,
03,
F3,
FD,
F5,
F2,
FD,
F8,
FB,
06,
0B,
EA,
FF,
14,
16,
FC,
01,
0E,
06,
0D,
0C,
0C,
10,
0C,
0B,
07,
FC,
06,
0B,
0E,
02,
06,
FF,
F9,
F6,
FD,
FD,
07,
18,
F1,
FC,
05,
17,
04,
FE,
09,
11,
1A,
14,
11,
0B,
04,
09,
02,
FB,
0C,
13,
0B,
1A,
0A,
07,
0B,
04,
09,
12,
32,
26,
14,
00,
14,
0B,
12,
0E,
07,
1B,
15,
1B,
13,
02,
02,
FA,
F5,
F6,
08,
05,
0E,
07,
04,
01,
19,
17,
15,
1E,
2E,
27,
ED,
03,
04,
FC,
09,
19,
00,
07,
0C,
10,
0E,
0B,
FB,
01,
EC,
F0,
F5,
EE,
F3,
F6,
F1,
0D,
05,
14,
0E,
16,
30,
0D,
EE,
03,
F7,
FC,
07,
12,
14,
0D,
09,
13,
1E,
0F,
05,
0C,
FF,
05,
02,
F6,
F6,
F4,
F7,
FE,
F3,
06,
06,
1B,
21,
28,
F8,
02,
FD,
00,
F9,
04,
20,
0C,
10,
16,
12,
1E,
13,
07,
0D,
01,
01,
F9,
F6,
F9,
FE,
08,
0B,
08,
12,
00,
08,
03,
E4,
E8,
00,
F1,
F6,
EE,
17,
04,
10,
18,
1E,
27,
23,
18,
1A,
0C,
0B,
02,
F3,
FC,
04,
1B,
0A,
FE,
FA,
FC,
F0,
E2,
F2,
07,
0D,
E7,
FE,
E5,
F6,
F4,
FB,
17,
28,
27,
29,
27,
1D,
1D,
16,
08,
0B,
06,
05,
FE,
0A,
09,
09,
04,
E5,
D9,
E9,
02,
0A,
12,
04,
DC,
DD,
E0,
E6,
01,
14,
27,
2C,
2F,
23,
22,
18,
0A,
0A,
04,
F2,
F5,
04,
14,
11,
F1,
E0,
05,
F1,
F5,
0D,
16,
02,
D9,
CB,
D1,
D7,
E1,
F8,
08,
0C,
24,
25,
14,
1C,
0A,
10,
FE,
EB,
EA,
01,
05,
07,
00,
E0,
DA,
EC,
FE,
0B,
0C,
F5,
D6,
CE,
C4,
C6,
C0,
D3,
D1,
E3,
F3,
05,
00,
0D,
08,
05,
F2,
E4,
F3,
0D,
06,
06,
05,
EE,
FC,
EE,
E5,
FF,
0E,
F5,
F3,
E9,
DE,
CC,
C5,
C0,
CC,
DD,
D7,
E7,
E9,
F8,
00,
F3,
E1,
EF,
08,
0A,
FC,
FD,
FB,
F4,
17,
E4,
00,
E8,
10,
11,
01,
FA,
E8,
DF,
E3,
E5,
E4,
D4,
CE,
D5,
DD,
EE,
F4,
ED,
F3,
02,
07,
02,
F8,
01,
F4,
F3,
E0,
E1,
FF,
FD,
0F,
10,
0F,
09,
0A,
01,
04,
04,
04,
F4,
E2,
E7,
F6,
FC,
F2,
FE,
F5,
02,
06,
0A,
08,
01,
F5,
F8,
E0,
0C,
F1,
08,
0E,
FF,
25,
21,
20,
21,
0E,
11,
04,
02,
FC,
F7,
FC,
0C,
FD,
FE,
F7,
F8,
01,
07,
02,
EF,
F5,
FB,
ED,
00,
F5,
05,
00,
09,
2B,
13,
12,
14,
09,
00,
FB,
03,
00,
F3,
FF,
FD,
F5,
F8,
F8,
0B,
FE,
F4,
01,
F8,
F7,
F5,
04,
FE,
00,
02,
10,
25,
25,
1A,
14,
0B,
0D,
07,
08,
00,
ED,
F6,
FA,
F3,
F7,
EC,
F8,
F7,
FC,
EF,
F7,
06,
F4,
F9,
F9,
FF,
FD,
FC,
21,
34,
1F,
0E,
17,
0D,
06,
09,
14,
0F,
FD,
F9,
EF,
EB,
ED,
E3,
E7,
02,
13,
02,
FF,
09,
D5,
E6,
F9,
01,
FF,
FD,
0B,
0A,
17,
46,
0D,
0E,
13,
1B,
30,
1E,
12,
20,
07,
FC,
09,
0E,
1D,
2C,
1A,
1E,
1A,
34,
1A,
F7,
FB,
FF,
03,
FC,
FF,
02,
2A,
34,
30,
23,
14,
21,
2C,
32,
42,
31,
1E,
0A,
23,
3C,
36,
FA,
14,
21,
13,
18,
06,
00,
01,
02,
01,
FF,
FF,
02,
F2,
E5,
06,
0C,
0D,
F9,
FD,
0A,
FD,
FD,
FE,
0D,
FB,
F6,
0F,
07,
07,
F7,
FA,
06,
FF,
04,
01,
01;
