memory_initialization_radix=16;
memory_initialization_vector=
02,
FD,
03,
03,
00,
FC,
FD,
04,
03,
04,
FE,
02,
FC,
FC,
03,
00,
FF,
04,
FD,
01,
FE,
FF,
FE,
FE,
04,
00,
FD,
FF,
FD,
FF,
01,
02,
F9,
FB,
F4,
FB,
F9,
FE,
F8,
09,
02,
04,
14,
F2,
07,
FF,
EA,
E6,
EC,
F3,
EF,
F8,
FC,
FD,
03,
00,
03,
FF,
00,
0E,
FE,
F7,
F8,
F8,
F3,
FA,
ED,
D3,
F2,
05,
F3,
DD,
E5,
EA,
EA,
E8,
E7,
DA,
DF,
DC,
F8,
05,
04,
FE,
01,
FD,
FB,
0A,
F7,
ED,
E1,
F3,
E8,
F4,
EB,
E3,
E7,
FF,
09,
07,
07,
14,
00,
E9,
FF,
04,
10,
12,
F8,
12,
F0,
FC,
FD,
FD,
E7,
E9,
F6,
E3,
ED,
F8,
F5,
0D,
F0,
FE,
0E,
13,
0F,
0A,
0C,
0B,
01,
0A,
0C,
0F,
0C,
0F,
11,
0C,
0A,
F4,
FD,
FD,
E3,
F1,
E7,
EC,
FA,
F9,
FE,
02,
02,
09,
05,
10,
17,
05,
FA,
03,
F8,
FB,
04,
11,
15,
F1,
FA,
1B,
E8,
E6,
FF,
02,
F3,
ED,
E7,
F7,
EE,
F4,
FB,
F5,
FD,
08,
0D,
13,
FF,
F6,
EE,
EC,
E3,
F6,
F4,
02,
18,
0E,
EC,
F4,
F4,
F9,
FF,
E5,
F4,
EE,
F4,
FA,
F3,
F6,
F9,
02,
10,
10,
09,
0E,
F8,
FD,
F3,
F8,
FE,
FB,
F3,
FB,
10,
20,
05,
FC,
FA,
F6,
24,
F0,
0A,
07,
F4,
ED,
FD,
F9,
F1,
10,
14,
10,
1D,
16,
0B,
FD,
F9,
05,
04,
00,
04,
FF,
05,
1B,
18,
18,
1A,
0B,
F5,
E8,
12,
F7,
E1,
DB,
F2,
F1,
F1,
09,
03,
04,
0C,
1E,
0D,
F4,
F2,
FD,
FD,
08,
0C,
0B,
02,
1B,
25,
16,
08,
E9,
F9,
FA,
0B,
03,
F1,
E6,
F4,
FC,
F9,
02,
06,
08,
0B,
0E,
0C,
F7,
ED,
04,
01,
FD,
02,
0C,
17,
14,
12,
E3,
F0,
FE,
F9,
14,
DD,
F8,
E5,
F0,
01,
08,
F0,
FA,
FC,
01,
0D,
0A,
0E,
F5,
F1,
02,
FD,
09,
FF,
0C,
08,
10,
12,
04,
12,
ED,
F5,
00,
E1,
FD,
EC,
EF,
02,
06,
F7,
FF,
FA,
04,
1A,
23,
FD,
EF,
F7,
05,
01,
0C,
0E,
10,
07,
09,
27,
FA,
EE,
DB,
01,
FC,
EF,
01,
F5,
F2,
FB,
01,
FA,
0B,
FC,
0C,
1A,
0E,
F2,
F5,
F7,
04,
08,
06,
12,
06,
0A,
04,
0B,
0C,
FC,
FB,
0C,
F7,
F2,
F0,
F3,
02,
01,
01,
07,
FE,
05,
18,
17,
04,
EE,
E6,
F1,
07,
01,
FB,
FC,
01,
03,
05,
17,
23,
ED,
FC,
06,
F0,
0D,
02,
F3,
FB,
F9,
05,
02,
12,
13,
13,
0A,
F0,
EA,
E6,
F5,
FF,
F4,
F4,
F3,
FE,
05,
0E,
13,
0A,
F9,
E6,
00,
F4,
FF,
0A,
FE,
F7,
07,
09,
0D,
0F,
13,
19,
11,
F9,
F3,
F6,
F7,
01,
F1,
F2,
03,
0B,
FE,
0E,
07,
FA,
EF,
08,
00,
ED,
09,
F0,
12,
03,
0D,
0A,
08,
16,
20,
20,
13,
F6,
FC,
F1,
FA,
F9,
F1,
FF,
06,
0F,
08,
15,
17,
EC,
E2,
20,
DF,
F2,
FC,
EF,
17,
0F,
0F,
0D,
0D,
1F,
1B,
14,
FA,
EE,
F7,
F8,
F1,
E5,
F0,
F3,
01,
02,
02,
13,
22,
E8,
D3,
EB,
FF,
F5,
00,
0A,
0C,
0E,
0E,
0B,
1B,
1A,
0F,
F7,
F1,
F5,
FB,
F4,
ED,
F3,
F9,
F8,
FF,
04,
0D,
01,
01,
E1,
FA,
ED,
02,
11,
1F,
00,
0F,
02,
FF,
11,
16,
0E,
0E,
03,
FF,
FA,
F2,
F8,
F3,
EC,
F6,
00,
03,
00,
0B,
F3,
D3,
C5,
F4,
F7,
FC,
0E,
06,
00,
06,
05,
08,
09,
0C,
0F,
05,
0A,
F1,
F7,
F4,
FC,
ED,
EF,
EB,
05,
01,
F7,
07,
F1,
D0,
DF,
1E,
03,
FB,
F7,
FF,
FE,
FC,
09,
18,
15,
09,
09,
05,
08,
FC,
00,
FC,
FB,
F6,
F0,
F7,
00,
F3,
F8,
F8,
F0,
E4,
FA,
17,
07,
02,
FF,
F9,
EA,
00,
F9,
FF,
0C,
13,
1B,
19,
0C,
0D,
0C,
04,
07,
05,
02,
EF,
FB,
E8,
E0,
DD,
F2,
D1,
FC,
F5,
03,
01,
00,
F1,
E9,
DD,
F3,
01,
00,
07,
17,
0C,
19,
18,
1A,
10,
06,
0A,
E9,
E1,
E9,
DC,
E0,
E7,
E4,
D5,
07,
FC,
FF,
04,
FC,
E8,
0C,
F4,
E5,
00,
00,
EE,
F7,
0A,
05,
F7,
0A,
FC,
10,
0E,
F0,
E3,
DB,
CC,
D8,
EF,
EA,
EA,
FE,
FD,
00,
02,
03,
FE,
FA,
0D,
01,
F5,
DF,
EA,
DF,
E8,
F3,
04,
E9,
CC,
E5,
E0,
D2,
DA,
E9,
D0,
D1,
E4,
F6,
E6,
FD,
01,
FD,
FF,
FE,
FE,
FE,
0A,
0B,
F0,
E8,
EB,
E5,
DE,
E6,
F1,
EB,
E2,
F0,
E5,
E3,
E8,
EF,
EB,
E9,
F0,
F8,
02,
01,
FE,
00;
