memory_initialization_radix=16;
memory_initialization_vector=
E2,
F0,
D3,
04,
F5,
0A,
3E,
30,
37,
E7,
B2,
13,
B9,
07,
18,
FD,
07,
F2,
0A,
11,
0C,
D1,
DB,
FA,
2E,
30,
E3,
D2,
08,
BA,
FE,
B4,
F3,
0B,
01,
00,
EA,
E6,
FC,
23,
F9,
24,
0C,
11,
11,
0D,
CE,
C3,
1D,
F8,
EF,
0A,
0D,
0D,
25,
E6,
09,
0A,
24,
11,
13,
D7,
1F,
06;
