memory_initialization_radix=16;
memory_initialization_vector=
03,
00,
FC,
04,
FE,
FE,
FF,
FE,
FE,
01,
04,
00,
06,
05,
00,
FE,
FD,
03,
FC,
02,
02,
02,
FF,
04,
04,
FE,
FD,
00,
02,
04,
00,
FD,
03,
05,
15,
13,
14,
12,
17,
1B,
1F,
1C,
EF,
28,
20,
23,
20,
1D,
22,
19,
16,
0E,
FD,
FF,
FE,
00,
01,
FD,
02,
1F,
21,
0B,
1A,
1F,
13,
F8,
06,
1B,
01,
F9,
E8,
F2,
FE,
FE,
21,
2D,
2B,
25,
1B,
1F,
02,
01,
FF,
02,
01,
04,
EE,
22,
0F,
19,
1B,
09,
12,
0A,
15,
09,
07,
06,
06,
01,
00,
04,
1C,
15,
1F,
08,
0F,
09,
F6,
EC,
E5,
03,
01,
01,
F3,
FF,
11,
F9,
FB,
F2,
F9,
EF,
F0,
F7,
EE,
EC,
FC,
00,
FC,
0C,
11,
0D,
02,
FF,
F1,
ED,
CB,
E7,
F3,
00,
FF,
04,
10,
E0,
FB,
F4,
FA,
F8,
FB,
EF,
F5,
EC,
EB,
F2,
E7,
F3,
EA,
F3,
03,
02,
F4,
F1,
D5,
D4,
CC,
D7,
E8,
F5,
FE,
F3,
13,
FC,
F2,
EF,
F8,
F0,
FE,
F3,
FD,
F8,
F5,
02,
0A,
00,
06,
FF,
05,
F5,
FA,
0B,
EB,
CE,
CF,
DA,
DA,
E7,
01,
06,
0A,
FF,
E6,
EC,
00,
FE,
FB,
06,
FE,
03,
0D,
0C,
09,
06,
01,
FE,
FA,
FC,
F7,
F2,
E0,
E0,
E2,
CE,
CB,
DB,
1C,
08,
F8,
F3,
F5,
05,
FE,
03,
0A,
05,
FB,
07,
0B,
03,
10,
0D,
0A,
01,
FA,
02,
FE,
07,
EE,
DF,
E7,
B3,
C9,
EB,
06,
20,
F5,
FB,
1D,
03,
13,
17,
0D,
09,
15,
16,
0F,
09,
10,
07,
06,
00,
02,
12,
0B,
07,
F4,
EE,
E2,
C7,
DE,
1B,
05,
11,
04,
02,
13,
0B,
17,
11,
16,
19,
0F,
12,
03,
15,
10,
04,
10,
09,
14,
0D,
13,
06,
05,
FE,
E7,
F7,
E1,
05,
0B,
16,
22,
0C,
14,
0B,
0A,
13,
1A,
0E,
14,
15,
07,
1A,
04,
06,
14,
16,
18,
0F,
1D,
19,
19,
15,
F8,
D0,
D1,
16,
0A,
0C,
15,
07,
1F,
17,
1A,
10,
11,
FF,
02,
02,
EC,
EB,
04,
0B,
0D,
10,
16,
08,
12,
0E,
1A,
2E,
FA,
EA,
F4,
1B,
F4,
08,
1A,
0B,
1F,
14,
16,
09,
00,
F8,
03,
E1,
DB,
EC,
FD,
F7,
01,
02,
00,
05,
09,
11,
16,
1E,
0D,
EF,
DB,
E4,
F8,
02,
16,
07,
10,
06,
0E,
06,
05,
FF,
F7,
EC,
E9,
F8,
F1,
FD,
F3,
F9,
08,
07,
17,
19,
16,
20,
0C,
E2,
D9,
E1,
F8,
F8,
E1,
EA,
00,
13,
11,
10,
08,
FB,
F9,
EB,
F2,
F9,
EC,
F4,
ED,
F7,
FF,
03,
1D,
22,
19,
0F,
06,
F5,
D6,
DB,
06,
FA,
DE,
E9,
02,
1E,
12,
13,
18,
0B,
05,
FD,
F9,
EF,
F0,
E8,
E4,
F3,
FD,
FF,
18,
06,
12,
00,
0A,
E7,
C5,
E7,
FE,
08,
D9,
F6,
F1,
12,
0B,
16,
19,
12,
1A,
10,
0C,
06,
FC,
F5,
F0,
FF,
02,
10,
0C,
F6,
08,
FE,
02,
F8,
DC,
0A,
18,
11,
F5,
EB,
ED,
FB,
FD,
12,
12,
19,
28,
22,
06,
01,
FE,
F3,
EC,
08,
09,
0F,
09,
FE,
08,
F1,
E8,
05,
F6,
ED,
09,
21,
0E,
DF,
F7,
F7,
FE,
00,
0C,
12,
14,
19,
13,
FD,
FB,
EB,
FB,
02,
08,
0F,
0A,
FD,
FF,
EA,
01,
0B,
E0,
03,
FF,
15,
E0,
D7,
EE,
FD,
F9,
EE,
F5,
FB,
FB,
01,
10,
07,
04,
F9,
FD,
01,
F5,
FF,
F6,
F0,
EF,
E7,
0D,
20,
F0,
FF,
09,
F0,
E1,
D9,
DC,
E3,
E8,
EA,
E3,
DF,
EE,
F3,
0D,
0D,
FD,
F9,
07,
F9,
F9,
FC,
03,
FD,
E9,
E3,
0B,
15,
13,
FF,
06,
07,
EF,
F0,
E6,
DE,
D6,
DE,
DE,
E3,
F4,
F4,
09,
05,
08,
07,
0D,
05,
F9,
F1,
00,
ED,
F4,
F4,
FF,
06,
17,
08,
00,
04,
F9,
EE,
E0,
EC,
EF,
E5,
DE,
E2,
F1,
F0,
F0,
F8,
F9,
F7,
FB,
FC,
F5,
EA,
F2,
FA,
07,
00,
1E,
02,
07,
01,
FC,
02,
05,
06,
08,
09,
FD,
04,
03,
F4,
01,
F2,
F3,
F3,
F0,
F9,
FF,
07,
EB,
F5,
0C,
05,
FE,
0F,
04,
E4,
F6,
FF,
01,
04,
08,
01,
EF,
03,
F2,
02,
18,
10,
FF,
07,
0B,
FC,
06,
EE,
F7,
E7,
F7,
12,
14,
10,
F8,
F8,
01,
FF,
F6,
FF,
01,
FC,
FF,
02,
F1,
FA,
05,
1C,
19,
2E,
2E,
1C,
10,
28,
3E,
1B,
30,
27,
1E,
26,
3E,
30,
2E,
16,
16,
05,
FF,
FC,
FE,
FD,
02,
FE,
FB,
F7,
15,
11,
1B,
14,
1C,
16,
11,
1E,
33,
22,
31,
2A,
2C,
20,
14,
17,
0F,
F5,
04,
01,
04,
01;
