memory_initialization_radix=16;
memory_initialization_vector=
E3,
02,
06,
10,
9B,
06,
93,
EA,
DE,
EF,
FC,
AB,
0F,
F9,
21,
10,
16,
ED,
22,
05,
0C,
95,
1A,
FC,
D1,
D2,
ED,
19,
15,
EB,
F5,
12,
1E,
20,
0C,
07,
1F,
0A,
C1,
C9,
12,
13,
16,
0A,
11,
FF,
14,
07,
A2,
0B,
D9,
0A,
00,
9A,
EE,
F4,
1D,
F1,
01,
12,
06,
F1,
FD,
F1;
