memory_initialization_radix=16;
memory_initialization_vector=
11,
D6,
0B,
16,
17,
BA,
25,
2D,
3A,
EE,
F3,
F4,
08,
02,
0E,
F6,
EF,
DC,
15,
BD,
C5,
15,
FE,
0D,
E4,
0A,
E6,
12,
FF,
E8,
0F,
11,
C0,
F3,
F7,
0A,
E2,
09,
02,
21,
D3,
F6,
12,
D1,
F3,
FE,
08,
F1,
0F,
DD,
07,
E8,
04,
16,
28,
E7,
F6,
DC,
4F,
DD,
F6,
30,
1F,
0B;
