memory_initialization_radix=16;
memory_initialization_vector=
00,
04,
02,
FC,
FF,
03,
03,
FC,
03,
FC,
FE,
02,
0A,
04,
07,
01,
FE,
FF,
02,
00,
FD,
FC,
01,
FD,
FE,
04,
01,
FD,
FF,
00,
03,
FE,
08,
04,
0F,
0C,
0E,
09,
07,
FA,
08,
02,
E2,
FB,
2D,
26,
13,
1B,
19,
0E,
10,
11,
03,
FD,
FC,
04,
00,
01,
04,
25,
1D,
0C,
11,
15,
21,
23,
18,
1B,
12,
F3,
02,
06,
09,
F8,
FD,
F8,
06,
20,
19,
24,
19,
04,
00,
00,
FC,
02,
EB,
23,
2C,
21,
25,
17,
20,
11,
1F,
29,
19,
10,
0F,
09,
09,
03,
07,
06,
09,
07,
EE,
E9,
09,
08,
1D,
00,
00,
03,
F2,
1D,
1C,
2C,
27,
08,
07,
FE,
00,
08,
F8,
F7,
F3,
02,
FC,
F6,
01,
06,
FB,
F6,
E8,
E8,
F9,
F0,
FF,
15,
01,
FF,
10,
1B,
25,
17,
05,
FE,
02,
08,
14,
14,
02,
FA,
EE,
F4,
FB,
F2,
F7,
01,
07,
05,
0A,
08,
FB,
D9,
0E,
17,
02,
13,
F7,
0C,
2C,
1C,
04,
05,
0A,
0D,
0B,
13,
09,
07,
FC,
F0,
F1,
E6,
F6,
F6,
ED,
F3,
F9,
F4,
17,
06,
1E,
0B,
00,
2A,
F2,
17,
17,
0C,
FF,
08,
0F,
FF,
FB,
0C,
FB,
F7,
0A,
F0,
EF,
EF,
F1,
E4,
E7,
E7,
F4,
F5,
07,
12,
28,
0B,
24,
2E,
EB,
07,
FE,
F5,
F1,
00,
EE,
EA,
EF,
F2,
E1,
E8,
EA,
F3,
F1,
FA,
E4,
ED,
FC,
EF,
F8,
00,
FA,
04,
F0,
F2,
10,
24,
E4,
02,
03,
F5,
E9,
EA,
E7,
D6,
D3,
D2,
CB,
CD,
E4,
F4,
0C,
01,
F0,
F5,
F9,
FE,
FE,
F7,
05,
F9,
F7,
FB,
12,
11,
07,
F9,
DB,
F2,
E6,
DA,
CC,
CB,
D5,
D2,
DD,
EC,
FF,
12,
1E,
08,
F3,
FA,
05,
08,
FE,
FC,
18,
0C,
F1,
EB,
14,
14,
08,
00,
F3,
F1,
D6,
DE,
DC,
DE,
E5,
F9,
07,
26,
1F,
20,
0C,
07,
FF,
10,
07,
0B,
02,
F8,
F7,
F8,
CA,
17,
04,
FE,
F8,
F1,
F2,
F6,
E7,
EC,
F8,
FC,
12,
25,
3E,
31,
21,
09,
11,
FE,
0B,
00,
FA,
04,
FF,
E8,
F0,
04,
F9,
25,
ED,
F1,
17,
08,
02,
09,
0A,
F9,
0A,
18,
32,
2C,
2B,
19,
08,
02,
0B,
FC,
06,
04,
02,
0D,
F7,
02,
0D,
15,
12,
16,
0F,
FC,
0E,
2B,
11,
12,
20,
0B,
19,
2F,
26,
1E,
1A,
02,
02,
FF,
00,
FF,
08,
00,
05,
0A,
FE,
07,
1A,
07,
1C,
11,
0C,
04,
EC,
23,
15,
21,
20,
0A,
FB,
0D,
05,
06,
10,
FE,
F9,
FF,
F9,
08,
11,
12,
0A,
0B,
F7,
07,
29,
10,
07,
27,
FC,
0A,
FA,
28,
2A,
1A,
03,
07,
F3,
F9,
F7,
05,
FD,
06,
03,
FF,
FE,
13,
19,
1A,
14,
1D,
16,
00,
09,
13,
11,
1E,
03,
0D,
02,
2E,
16,
08,
05,
F7,
F1,
EC,
EF,
02,
FF,
06,
FA,
05,
0B,
12,
11,
0B,
04,
0F,
FC,
EA,
E3,
0A,
0A,
0C,
09,
12,
FF,
24,
03,
13,
11,
06,
0D,
03,
01,
06,
1A,
15,
11,
14,
1C,
12,
09,
FE,
EF,
F4,
F0,
ED,
EE,
1A,
10,
2B,
F0,
13,
08,
0E,
0D,
10,
0F,
F9,
FD,
02,
09,
15,
18,
25,
29,
20,
1B,
1A,
03,
EE,
EA,
EC,
EF,
F0,
E4,
F5,
05,
1B,
FE,
E7,
FB,
1A,
09,
06,
06,
05,
FC,
08,
09,
0E,
08,
18,
22,
1A,
0A,
10,
F9,
E7,
F4,
EE,
E0,
D6,
E0,
F3,
00,
EC,
F6,
FE,
0E,
03,
E8,
ED,
F9,
04,
FC,
F8,
02,
FA,
FE,
FE,
01,
02,
0C,
09,
FA,
F5,
E7,
ED,
E4,
DB,
E4,
07,
2A,
00,
F2,
02,
12,
F6,
F3,
E1,
DF,
F5,
F2,
00,
03,
F7,
FF,
F9,
F4,
08,
00,
FD,
EC,
F5,
EF,
DB,
E4,
E2,
D9,
E8,
1D,
FB,
FD,
FE,
22,
10,
02,
FB,
F2,
F6,
F1,
09,
11,
10,
01,
FC,
01,
F5,
F0,
D9,
C4,
DF,
EE,
FE,
04,
F8,
EE,
F5,
1C,
03,
01,
04,
0E,
27,
FF,
F6,
06,
FF,
00,
06,
FD,
FE,
04,
10,
13,
E8,
EE,
F0,
CE,
DA,
F8,
1F,
10,
E5,
03,
04,
FF,
FD,
FC,
04,
06,
09,
FB,
F2,
11,
0F,
EF,
FA,
02,
0C,
0E,
00,
E2,
DB,
ED,
E3,
DA,
01,
FD,
DF,
F2,
ED,
FF,
02,
03,
FE,
00,
FE,
03,
F4,
EC,
F2,
ED,
C6,
E0,
DF,
00,
FE,
FA,
F4,
BB,
D6,
F5,
F6,
DE,
0E,
F7,
E5,
E9,
D9,
F6,
01,
FD,
FE,
02,
00,
FD,
02,
03,
05,
F0,
F1,
EE,
F4,
EB,
D3,
E4,
DC,
D6,
F1,
20,
1A,
FE,
FF,
FC,
04,
FD,
01,
02,
FF,
FF,
02;
