memory_initialization_radix=16;
memory_initialization_vector=
00,
04,
01,
04,
01,
FD,
FC,
02,
00,
FD,
FD,
02,
0C,
05,
FC,
FE,
FE,
01,
04,
01,
02,
02,
FD,
FF,
04,
FC,
00,
03,
FE,
04,
FE,
FF,
00,
07,
10,
14,
0F,
0F,
0A,
03,
0A,
16,
1C,
19,
F9,
FD,
13,
13,
17,
16,
11,
0B,
00,
02,
FF,
FD,
FC,
00,
02,
0C,
08,
17,
22,
10,
00,
F0,
08,
1E,
0E,
29,
1D,
26,
26,
28,
2B,
25,
22,
10,
12,
1E,
FD,
F7,
FD,
00,
FC,
FF,
1C,
22,
2D,
0E,
1F,
22,
1C,
FA,
06,
E9,
F8,
FB,
F9,
17,
0B,
0B,
23,
1A,
1D,
16,
F2,
05,
08,
F2,
07,
00,
02,
04,
1E,
2F,
29,
26,
17,
1E,
1E,
01,
00,
FD,
00,
04,
06,
0C,
09,
08,
07,
FF,
FB,
02,
FB,
0A,
15,
1F,
14,
FA,
FE,
04,
2A,
14,
11,
2C,
19,
18,
0A,
08,
FA,
04,
0D,
05,
FA,
06,
14,
16,
11,
09,
06,
FE,
F5,
04,
11,
0F,
27,
02,
FF,
0F,
0C,
F7,
0C,
07,
08,
0C,
08,
13,
0B,
14,
16,
0D,
07,
0B,
0C,
0D,
11,
FE,
FC,
F6,
E0,
F3,
FA,
21,
16,
02,
FB,
20,
F0,
F1,
05,
FA,
07,
09,
04,
05,
0E,
06,
0B,
FE,
15,
0F,
02,
00,
FC,
F6,
F8,
F2,
F1,
D8,
C5,
18,
FC,
00,
02,
08,
E2,
EE,
FA,
04,
04,
FE,
F9,
F3,
FB,
FD,
F6,
F8,
F9,
F6,
EC,
EA,
E6,
EA,
D2,
E5,
EC,
D4,
C5,
EE,
F5,
FC,
EA,
F0,
E8,
FB,
11,
FE,
0A,
06,
03,
ED,
F1,
FF,
FD,
F1,
F6,
F7,
ED,
E4,
DD,
D0,
C4,
E4,
F8,
E4,
DA,
FE,
17,
06,
ED,
F6,
DF,
FA,
05,
F8,
FE,
03,
FD,
EE,
F9,
05,
FE,
FB,
F8,
FB,
FA,
F1,
ED,
F2,
F2,
F2,
EF,
F2,
F6,
12,
0C,
07,
F1,
ED,
05,
12,
1B,
09,
02,
01,
F6,
EB,
05,
0D,
13,
1D,
1B,
13,
14,
0D,
0D,
09,
0C,
0A,
05,
06,
FC,
ED,
EF,
18,
00,
E9,
05,
12,
09,
13,
F9,
00,
FD,
F7,
05,
0C,
0D,
14,
1C,
24,
21,
12,
16,
0D,
09,
12,
17,
15,
EE,
EF,
13,
20,
17,
F9,
03,
FA,
F5,
0F,
FB,
03,
02,
F8,
FC,
FD,
FF,
1D,
21,
18,
18,
15,
04,
02,
14,
12,
09,
0D,
0F,
F2,
F8,
FB,
FD,
07,
01,
FF,
EC,
E6,
F9,
FC,
F9,
00,
00,
F9,
00,
09,
0B,
05,
0F,
10,
09,
03,
0E,
1C,
12,
09,
08,
07,
E8,
F5,
03,
0A,
08,
ED,
EE,
E7,
F9,
ED,
F5,
E4,
EF,
F6,
FC,
0C,
0A,
F5,
0D,
11,
0D,
05,
10,
1E,
0C,
0D,
0C,
08,
F8,
F8,
FC,
06,
10,
F6,
F7,
E9,
EC,
EF,
F1,
E4,
DF,
E2,
E5,
13,
0C,
F6,
0A,
07,
13,
13,
0E,
0B,
08,
08,
23,
0B,
F4,
D9,
02,
10,
01,
0A,
F5,
F9,
FC,
F3,
F2,
DC,
D3,
CE,
D3,
03,
07,
FF,
03,
09,
0C,
16,
0B,
05,
F4,
06,
14,
F3,
0A,
D9,
1F,
0B,
0D,
28,
14,
08,
0C,
F9,
E7,
EA,
E6,
DA,
D5,
ED,
02,
00,
05,
10,
0A,
15,
0D,
06,
F8,
FD,
08,
09,
07,
10,
09,
08,
0B,
2F,
14,
06,
0C,
00,
F9,
04,
04,
F5,
F2,
F6,
F9,
07,
0D,
06,
01,
0F,
03,
FE,
F1,
05,
11,
13,
F2,
09,
FF,
FB,
F1,
1E,
07,
06,
0D,
06,
0F,
13,
0B,
FF,
F3,
FB,
04,
02,
0B,
03,
08,
0A,
03,
FC,
FF,
04,
0F,
F9,
02,
14,
0A,
F3,
F0,
FF,
02,
09,
12,
14,
1D,
15,
13,
09,
0C,
09,
05,
FE,
01,
05,
17,
0E,
17,
02,
EE,
E8,
0A,
E7,
F5,
FC,
0F,
14,
FD,
03,
09,
EF,
F1,
FB,
08,
0A,
08,
08,
FC,
ED,
F3,
F1,
FC,
0B,
12,
0D,
10,
FA,
EC,
EE,
01,
EF,
0D,
FB,
FD,
00,
17,
1D,
07,
00,
FE,
F9,
04,
03,
04,
FD,
F4,
EA,
EA,
F3,
FD,
05,
10,
0E,
10,
F1,
DD,
ED,
12,
EB,
19,
04,
FE,
00,
15,
23,
19,
0C,
0E,
03,
EA,
EB,
FD,
F7,
E9,
E4,
DA,
F7,
FD,
0E,
00,
10,
0F,
F7,
D7,
F3,
F0,
E7,
FE,
00,
FD,
FE,
04,
03,
17,
36,
29,
18,
13,
13,
0C,
00,
11,
0B,
0D,
0A,
13,
01,
0D,
32,
1C,
0F,
02,
03,
1B,
FD,
FF,
FD,
FD,
FD,
00,
0B,
13,
24,
1F,
26,
12,
2C,
35,
31,
20,
35,
3C,
3A,
35,
31,
1E,
1B,
31,
2A,
1B,
24,
10,
FD,
02,
03,
FE,
03,
03,
FF,
F4,
EC,
02,
07,
06,
F9,
01,
11,
11,
0D,
2C,
1A,
25,
10,
1E,
0E,
F6,
F7,
FB,
00,
FE,
02,
02,
FF;
