memory_initialization_radix=16;
memory_initialization_vector=
1C,
F5,
E9,
EC,
19,
05,
D4,
20,
E8,
0D,
22,
D2,
24,
F8,
F7,
0D,
1C,
19,
EF,
D4,
0A,
01,
DD,
D3,
B2,
24,
0B,
B1,
FD,
11,
AA,
14,
03,
16,
0B,
14,
92,
D1,
F9,
E7,
08,
2A,
1B,
B9,
05,
12,
EE,
FE,
00,
0C,
1D,
19,
FA,
C4,
1E,
DB,
DD,
E3,
F2,
03,
F2,
A8,
36,
B9;
