memory_initialization_radix=16;
memory_initialization_vector=
03,
FC,
01,
04,
00,
02,
FC,
00,
03,
FF,
02,
FE,
04,
03,
FE,
FE,
00,
03,
00,
04,
04,
01,
FD,
FC,
00,
FF,
FE,
02,
FC,
FD,
01,
00,
FD,
03,
02,
FC,
FC,
03,
FF,
FC,
FD,
01,
FF,
FD,
FE,
03,
02,
00,
02,
00,
02,
FC,
FD,
FF,
FD,
FE,
FC,
02,
FE,
FE,
FF,
FE,
04,
FC,
02,
01,
FE,
01,
FD,
FD,
FD,
04,
03,
FC,
02,
FD,
FD,
FD,
00,
00,
FF,
FC,
00,
04,
00,
FF,
FE,
FC,
FC,
FD,
FF,
01,
FC,
FF,
01,
04,
01,
00,
02,
FE,
FC,
FD,
03,
03,
FD,
04,
00,
FE,
FD,
03,
03,
FE,
FC,
FC,
FE,
03,
FF,
FF,
01,
02,
02,
FE,
04,
FE,
FF,
01,
FD,
FF,
FD,
FB,
03,
03,
FE,
03,
FE,
FD,
FC,
00,
FF,
02,
04,
01,
02,
02,
01,
02,
FF,
05,
FF,
01,
FD,
FC,
00,
01,
FF,
FC,
FF,
FD,
00,
01,
FB,
FD,
02,
03,
00,
01,
FC,
FE,
00,
01,
FD,
FC,
01,
01,
FB,
FF,
FF,
FD,
FF,
FC,
FD,
FC,
00,
FD,
01,
FE,
FE,
00,
00,
01,
03,
01,
00,
FC,
03,
00,
FF,
FE,
03,
FC,
04,
00,
FB,
FF,
00,
FF,
FE,
00,
00,
02,
FE,
FD,
FC,
01,
03,
02,
01,
FD,
FF,
03,
03,
FF,
FE,
FF,
FC,
03,
00,
FF,
FE,
FD,
FE,
01,
FF,
FB,
02,
03,
FC,
FD,
FE,
FB,
01,
FD,
FF,
FE,
01,
03,
FE,
FD,
00,
FD,
04,
FF,
01,
05,
FD,
02,
04,
04,
03,
02,
FC,
FC,
02,
00,
FF,
FE,
FE,
FC,
FD,
FF,
FB,
FE,
FC,
01,
02,
02,
FF,
01,
01,
FE,
FC,
03,
01,
FF,
FF,
04,
03,
03,
FD,
FC,
FD,
FF,
FC,
FE,
00,
02,
02,
FC,
01,
03,
02,
FB,
FF,
02,
01,
FC,
00,
01,
04,
04,
FC,
00,
00,
03,
01,
FD,
FF,
01,
02,
FB,
FE,
02,
FD,
00,
FD,
03,
00,
FD,
FF,
00,
FC,
02,
FD,
00,
04,
FE,
FE,
00,
01,
02,
02,
02,
FB,
02,
01,
03,
FC,
03,
FB,
FB,
02,
FF,
00,
FB,
FE,
FB,
00,
02,
00,
FC,
FC,
FE,
03,
00,
00,
02,
03,
FF,
02,
FC,
02,
02,
00,
00,
FD,
00,
FF,
00,
FA,
FF,
FB,
FE,
02,
FB,
02,
02,
00,
03,
01,
FF,
04,
02,
02,
FE,
04,
FC,
02,
02,
FD,
FB,
FF,
FB,
FE,
FD,
FE,
FD,
01,
FC,
03,
00,
01,
02,
FE,
02,
FE,
02,
FF,
FC,
FD,
04,
01,
FF,
04,
00,
00,
FB,
FC,
FC,
FB,
01,
01,
FB,
03,
FC,
FD,
FD,
FC,
FE,
03,
00,
FE,
03,
FC,
03,
FC,
FF,
03,
01,
03,
03,
03,
FC,
FC,
FD,
FF,
02,
FF,
03,
FB,
00,
00,
FF,
01,
03,
00,
00,
00,
FC,
01,
FD,
FD,
03,
FF,
FD,
02,
00,
00,
FF,
FC,
FD,
FE,
04,
FC,
02,
FF,
FD,
FC,
FF,
FD,
FD,
00,
FB,
FC,
FD,
FD,
FE,
FE,
00,
03,
03,
FD,
02,
FD,
FF,
02,
02,
FD,
03,
00,
FE,
FF,
00,
FF,
01,
FF,
FF,
00,
03,
FD,
FB,
FC,
01,
FC,
01,
FD,
FB,
FC,
FF,
FE,
FD,
FF,
FD,
FE,
FC,
FD,
03,
03,
FF,
01,
FB,
FD,
01,
01,
03,
FE,
FC,
02,
FF,
FF,
FE,
02,
FC,
FD,
02,
FE,
FF,
03,
00,
04,
FF,
03,
FC,
02,
03,
FF,
FB,
FD,
FE,
FB,
FD,
02,
FB,
01,
FF,
02,
FE,
01,
FF,
00,
03,
FD,
FE,
02,
00,
FE,
FE,
04,
FC,
FC,
04,
FE,
FD,
FE,
01,
FD,
FF,
FF,
03,
FE,
FC,
00,
FB,
FF,
03,
FB,
00,
FB,
02,
FE,
02,
04,
00,
03,
03,
00,
01,
FF,
FD,
03,
FC,
FD,
02,
FC,
FC,
FD,
FC,
00,
00,
00,
FC,
FF,
FC,
00,
02,
FF,
FC,
01,
FF,
00,
01,
FD,
02,
03,
FF,
FF,
03,
00,
FF,
FE,
FD,
01,
00,
02,
FF,
01,
FF,
FB,
03,
FD,
03,
02,
02,
FF,
02,
FE,
FB,
FC,
FE,
01,
FD,
03,
01,
04,
03,
FC,
02,
04,
05,
FE,
02,
FF,
01,
FD,
FB,
02,
01,
FB,
FE,
02,
FE,
02,
FE,
FF,
00,
00,
03,
04,
03,
01,
02,
02,
01,
02,
FE,
01,
00,
04,
02,
FD,
02,
02,
FD,
FE,
FE,
FE,
FE,
FD,
FF,
04,
01,
03,
FE,
03,
01,
FC,
FE,
04,
03,
FD,
01,
FD,
FD,
03,
02,
04,
03,
FD,
FC,
FE,
01,
FF,
FF,
FD,
03,
03,
FF,
03,
02,
01,
00,
01,
00,
04,
04,
04,
FE,
04,
FC,
FE,
04,
03,
00,
00,
03,
FE,
FC,
FD,
03,
01,
03,
FD,
FF,
02,
02,
04,
FD,
FE,
04,
FF,
01,
02,
00,
FF,
FF;
