memory_initialization_radix=16;
memory_initialization_vector=
FF,
02,
00,
01,
01,
FE,
01,
02,
FD,
FD,
00,
FC,
F7,
F9,
FD,
03,
FE,
00,
FD,
04,
FE,
FE,
FD,
03,
01,
03,
02,
04,
FC,
FD,
FD,
FD,
F9,
FB,
FB,
FA,
00,
F8,
F0,
EC,
E8,
F8,
16,
FA,
E1,
E2,
DF,
E9,
E2,
E9,
E8,
E9,
FE,
02,
03,
03,
04,
FF,
00,
EB,
E7,
FC,
FE,
F7,
FD,
03,
F6,
EA,
CC,
F2,
F9,
FD,
F5,
F0,
E9,
CF,
DF,
CD,
CD,
DD,
FC,
0C,
FF,
02,
FF,
04,
1C,
EA,
E9,
EF,
FD,
D8,
D8,
EF,
D6,
DA,
CD,
CC,
DB,
EB,
E3,
EE,
ED,
E7,
EA,
F8,
FC,
F0,
EA,
1C,
F7,
FE,
03,
FF,
17,
08,
E8,
E9,
E5,
E6,
D1,
EA,
E7,
FB,
01,
E9,
EB,
E4,
E7,
F6,
F5,
E4,
F0,
E9,
E6,
E8,
F5,
10,
0F,
EA,
01,
FD,
EB,
E7,
DF,
E4,
D5,
D3,
F6,
00,
F6,
0E,
0E,
02,
F1,
F3,
E9,
EB,
EC,
EA,
01,
F3,
F1,
D8,
DA,
04,
F7,
E6,
FF,
F1,
FB,
ED,
F4,
F6,
CF,
D8,
E9,
F7,
EF,
04,
08,
05,
05,
FD,
01,
0B,
0D,
0E,
0F,
05,
04,
01,
F0,
19,
0C,
F0,
03,
E9,
09,
01,
F9,
E7,
D7,
D8,
F1,
F5,
02,
01,
08,
06,
02,
12,
12,
0D,
13,
0C,
0D,
15,
1C,
11,
F7,
0B,
05,
EB,
E5,
04,
0A,
0C,
FE,
F1,
00,
F1,
FA,
FE,
06,
07,
05,
0D,
0E,
10,
07,
01,
0F,
0C,
0B,
11,
FE,
1E,
28,
37,
14,
18,
13,
0F,
06,
05,
F0,
EF,
01,
EF,
F8,
03,
06,
0B,
01,
0F,
10,
11,
00,
F4,
0A,
FF,
07,
0C,
07,
0C,
31,
4F,
3A,
F2,
10,
03,
02,
E2,
F8,
06,
07,
EE,
08,
12,
1F,
0B,
0F,
11,
1B,
0D,
FE,
EB,
05,
0A,
04,
0E,
0D,
08,
20,
2D,
36,
F6,
0B,
E1,
19,
E8,
F8,
16,
13,
05,
06,
10,
1B,
19,
1C,
19,
1B,
0C,
02,
FA,
FE,
00,
03,
0B,
22,
29,
32,
31,
32,
14,
04,
01,
1A,
11,
0C,
11,
11,
10,
0C,
13,
0B,
10,
07,
07,
FB,
0A,
FF,
01,
F7,
F8,
00,
0B,
12,
1F,
00,
15,
2E,
1A,
F6,
01,
0B,
14,
0C,
12,
FF,
0F,
05,
0E,
FF,
09,
0B,
00,
FD,
0E,
0C,
05,
ED,
F1,
FE,
0C,
17,
00,
FC,
0C,
1A,
FF,
04,
01,
01,
F7,
12,
06,
06,
03,
02,
FC,
FD,
F9,
F9,
FF,
08,
0E,
16,
11,
F8,
FB,
03,
09,
06,
04,
01,
F0,
19,
04,
03,
01,
EC,
FF,
0D,
FB,
FA,
EE,
F5,
F5,
F3,
F7,
FC,
05,
0E,
09,
0A,
04,
F7,
F0,
FD,
05,
02,
0F,
FF,
E1,
E8,
0E,
FF,
F8,
F0,
F0,
FC,
00,
FA,
F0,
FA,
F2,
F7,
03,
10,
07,
08,
08,
05,
FF,
E6,
EC,
01,
08,
0C,
04,
F3,
E1,
13,
0E,
FD,
F8,
EF,
F5,
F8,
02,
07,
F3,
00,
01,
0B,
14,
08,
0C,
13,
0C,
F8,
ED,
F4,
FB,
0D,
07,
03,
F2,
0C,
F2,
FA,
FC,
21,
E8,
F3,
F3,
F8,
FD,
05,
07,
09,
0A,
07,
09,
06,
10,
0D,
F4,
E2,
E8,
F1,
F7,
07,
F7,
FC,
F7,
12,
EE,
15,
FC,
FF,
0C,
F4,
EF,
E9,
F2,
FB,
F8,
12,
0A,
00,
F8,
00,
05,
F6,
F4,
EB,
E9,
F6,
03,
FA,
F0,
F6,
06,
1E,
06,
05,
E9,
FD,
FE,
E3,
EA,
D4,
F4,
FA,
F1,
09,
02,
FB,
F0,
F7,
FF,
EF,
F2,
EE,
F9,
F6,
FB,
EF,
E6,
F2,
F7,
20,
2D,
EE,
F8,
FF,
F1,
E2,
DD,
EF,
F6,
00,
FE,
F8,
00,
F3,
EF,
F3,
EB,
ED,
F6,
EA,
FE,
F9,
01,
F1,
EF,
E6,
F2,
2B,
1C,
E2,
01,
F8,
F6,
E1,
F9,
05,
E8,
FB,
06,
F4,
FA,
FA,
FF,
04,
FD,
01,
F1,
F6,
FF,
FF,
F0,
EE,
ED,
E2,
FD,
23,
17,
05,
FD,
02,
FF,
D8,
F5,
04,
02,
F8,
FC,
00,
FE,
02,
FD,
0C,
02,
02,
FB,
03,
00,
F8,
07,
FF,
F7,
FB,
1D,
21,
0B,
FB,
FF,
01,
FD,
ED,
F1,
EF,
FE,
EC,
01,
0C,
00,
07,
0F,
0D,
07,
F5,
F6,
EE,
E3,
FF,
1A,
0C,
F3,
FD,
14,
08,
F0,
FD,
FF,
03,
FE,
0C,
21,
05,
EE,
EC,
FA,
F4,
00,
05,
0E,
F5,
FF,
16,
09,
F9,
0F,
19,
12,
12,
10,
0B,
0E,
1C,
02,
FE,
FD,
02,
FD,
03,
07,
08,
03,
01,
01,
10,
21,
0C,
08,
16,
1C,
14,
04,
02,
0B,
13,
18,
30,
2B,
1D,
10,
18,
02,
FD,
FF,
03,
02,
FF,
FD,
F9,
F7,
11,
0F,
15,
10,
1A,
1B,
16,
1A,
30,
22,
27,
1B,
2B,
29,
1F,
09,
0D,
F2,
00,
FD,
FE,
03;
