memory_initialization_radix=16;
memory_initialization_vector=
FD,
FE,
01,
04,
01,
FF,
00,
00,
01,
04,
00,
04,
0E,
08,
ED,
FD,
FD,
03,
02,
FF,
03,
FC,
FC,
FC,
FF,
01,
02,
FD,
03,
FE,
FF,
FF,
02,
00,
0F,
0A,
17,
0D,
1B,
11,
10,
18,
E2,
E4,
F8,
07,
1E,
15,
1A,
13,
14,
0D,
FC,
02,
FF,
01,
FE,
03,
FF,
E9,
F0,
09,
0E,
17,
13,
01,
07,
22,
15,
EC,
FF,
EC,
ED,
F9,
09,
F6,
FD,
13,
1E,
1A,
F9,
FB,
FE,
FF,
FD,
01,
E7,
E7,
1E,
1D,
1D,
19,
15,
0B,
0E,
20,
10,
05,
05,
FB,
F6,
EB,
FC,
FF,
04,
19,
13,
32,
15,
F3,
12,
04,
FF,
FA,
E6,
FD,
09,
EC,
EE,
FE,
F1,
F4,
01,
FD,
01,
F6,
05,
F4,
F8,
FC,
F1,
EC,
FB,
0B,
03,
1B,
2A,
22,
1A,
1C,
04,
FF,
F3,
06,
06,
D8,
E2,
FF,
FD,
01,
06,
1D,
15,
12,
0D,
00,
02,
00,
F1,
F4,
FE,
F2,
F3,
FC,
14,
22,
21,
1C,
04,
EE,
1A,
FB,
0E,
F4,
ED,
02,
0D,
12,
06,
0F,
15,
0B,
19,
15,
0D,
07,
F7,
00,
FA,
F2,
EF,
03,
09,
3B,
12,
1E,
FC,
EE,
0F,
EE,
F3,
0A,
FE,
F2,
17,
09,
04,
05,
09,
0F,
07,
11,
FB,
03,
FA,
F7,
F6,
F9,
F5,
EE,
17,
2B,
17,
1D,
E0,
F8,
08,
00,
03,
07,
05,
F4,
0C,
0A,
F6,
0A,
01,
0A,
0C,
00,
FE,
F8,
00,
FF,
F9,
07,
EB,
ED,
12,
40,
1A,
02,
02,
0A,
FD,
FB,
F7,
06,
05,
FC,
05,
06,
03,
09,
0D,
09,
09,
FF,
FA,
F8,
FA,
01,
06,
FD,
E7,
EF,
12,
33,
0F,
E2,
FF,
FD,
DC,
FA,
01,
14,
0E,
08,
0E,
0F,
0B,
04,
09,
03,
08,
00,
FA,
F8,
00,
00,
FD,
F4,
E5,
05,
29,
11,
FC,
DE,
FC,
DA,
E9,
F6,
F9,
15,
1F,
1E,
24,
1A,
10,
06,
0B,
09,
09,
05,
0B,
0B,
04,
03,
F7,
FD,
F4,
07,
23,
1C,
0F,
E0,
FF,
F9,
F4,
0A,
04,
18,
10,
0E,
12,
0C,
06,
03,
FE,
04,
FD,
09,
11,
0B,
00,
02,
FB,
08,
06,
1C,
10,
FB,
F0,
DF,
E9,
F7,
E5,
FA,
FC,
13,
08,
0D,
0D,
06,
11,
FE,
02,
04,
04,
10,
16,
02,
02,
12,
0B,
0D,
11,
23,
FF,
E6,
DD,
F2,
FC,
FA,
DF,
F0,
F6,
09,
07,
12,
04,
04,
11,
0E,
05,
06,
FF,
0A,
07,
01,
10,
0D,
13,
15,
17,
07,
ED,
F5,
D9,
F3,
FA,
F8,
D8,
ED,
FD,
00,
12,
0F,
0A,
04,
14,
15,
0B,
03,
01,
08,
03,
0A,
15,
19,
1A,
11,
1A,
13,
E8,
0D,
E8,
E4,
F9,
F4,
E1,
F3,
F0,
03,
17,
0B,
1B,
0C,
15,
19,
10,
05,
00,
FE,
04,
0F,
0F,
0B,
0E,
00,
18,
13,
F2,
1D,
E1,
DF,
03,
F0,
F0,
F8,
E7,
08,
12,
17,
1D,
19,
1A,
0A,
01,
FD,
F9,
03,
08,
15,
0E,
08,
09,
00,
0E,
07,
EB,
EE,
E9,
D6,
F3,
E0,
F2,
F5,
FE,
09,
25,
1B,
11,
0F,
13,
0B,
08,
00,
01,
0B,
09,
0B,
FD,
02,
09,
03,
F7,
FC,
E2,
DA,
F5,
E2,
F4,
E4,
05,
02,
02,
0B,
01,
FD,
06,
04,
0B,
00,
FB,
F3,
03,
09,
02,
04,
05,
0F,
01,
02,
FC,
FA,
DD,
CF,
EE,
E2,
01,
E3,
05,
EE,
FF,
06,
E8,
F4,
FB,
FB,
F9,
F4,
EA,
03,
0B,
0C,
01,
F9,
F7,
F4,
F7,
F7,
FA,
FA,
ED,
F8,
EE,
ED,
EF,
ED,
E5,
D8,
F1,
E9,
E3,
F0,
F7,
FC,
F1,
02,
06,
0F,
0E,
0E,
0A,
0B,
FB,
F0,
E6,
F0,
05,
00,
EF,
06,
E9,
FF,
F4,
F1,
EE,
FE,
EE,
C7,
DA,
EA,
ED,
F4,
06,
0D,
1B,
13,
10,
0D,
11,
04,
F5,
EF,
E5,
ED,
04,
0D,
0B,
02,
01,
01,
01,
FC,
ED,
1D,
00,
F2,
DF,
EB,
04,
F4,
FF,
08,
02,
02,
09,
03,
08,
FF,
07,
01,
FF,
06,
0B,
29,
1C,
0C,
EB,
FC,
FE,
FC,
DE,
06,
00,
00,
FE,
06,
0D,
01,
09,
09,
0B,
0A,
02,
10,
1B,
FA,
07,
0C,
1A,
01,
05,
1F,
F4,
E4,
FA,
FC,
FF,
04,
19,
0E,
ED,
0D,
0A,
03,
ED,
FC,
24,
1E,
FF,
0B,
10,
11,
18,
16,
1F,
25,
1F,
1A,
01,
0B,
FD,
FC,
FD,
FD,
FE,
01,
FF,
04,
24,
33,
1E,
0C,
00,
11,
0B,
13,
23,
15,
19,
04,
0D,
1B,
17,
FF,
1D,
14,
FE,
11,
18,
F4,
04,
FE,
FC,
03,
FC,
FE,
EF,
DB,
0B,
0F,
09,
FD,
05,
07,
FF,
F0,
07,
0C,
00,
F2,
0E,
0F,
00,
EE,
F1,
DB,
01,
FE,
03,
02;
