memory_initialization_radix=16;
memory_initialization_vector=
02,
FE,
00,
00,
02,
01,
FF,
FC,
02,
03,
FC,
00,
F4,
F4,
FF,
FF,
03,
01,
00,
01,
03,
FD,
FE,
FD,
FD,
FE,
02,
03,
FE,
00,
FE,
FF,
FD,
FC,
F8,
F1,
F3,
EF,
E8,
ED,
E3,
CE,
0D,
ED,
E5,
DE,
E0,
EA,
DE,
F7,
00,
FC,
FD,
02,
02,
FD,
FF,
FF,
FB,
F8,
F2,
00,
E7,
DB,
06,
12,
0F,
F6,
1C,
2C,
1D,
16,
F7,
D8,
CE,
E4,
F9,
F6,
02,
F7,
0D,
0F,
FD,
03,
00,
00,
1B,
09,
FC,
FD,
F6,
FD,
08,
FA,
FB,
0A,
17,
11,
05,
F9,
FB,
E7,
D1,
DF,
EA,
E6,
F6,
15,
1B,
F4,
FF,
FD,
01,
00,
15,
0D,
26,
28,
14,
F8,
07,
EB,
F6,
01,
0B,
0D,
F8,
FD,
FD,
F1,
E9,
EC,
E1,
EF,
F6,
EB,
E9,
E5,
E6,
03,
01,
FD,
01,
29,
30,
19,
0D,
07,
04,
F4,
F6,
02,
10,
07,
03,
10,
06,
F9,
F9,
E8,
CA,
EB,
E8,
E0,
F7,
E4,
E0,
F9,
04,
FF,
F9,
2F,
24,
FA,
0F,
09,
00,
0A,
09,
04,
03,
00,
03,
07,
14,
0A,
F8,
DB,
CA,
E5,
D3,
DE,
E4,
EB,
EF,
F3,
FE,
15,
17,
41,
2B,
FB,
0B,
FF,
FC,
0A,
04,
FF,
F2,
F2,
FA,
13,
1A,
22,
F9,
D8,
C7,
C2,
BC,
D9,
C6,
DD,
E4,
EB,
00,
0A,
14,
29,
2F,
05,
FE,
FF,
F9,
04,
05,
EF,
F2,
F8,
14,
34,
3E,
28,
FD,
CE,
A6,
96,
C2,
D7,
D8,
DA,
ED,
EA,
0B,
18,
21,
0E,
11,
1E,
FF,
FE,
F3,
F3,
EB,
EC,
01,
12,
2B,
4E,
5A,
2C,
E5,
B0,
81,
97,
BC,
F1,
EC,
F0,
F7,
05,
0A,
28,
0F,
0E,
03,
08,
FC,
F5,
D7,
E7,
EF,
FB,
FF,
17,
39,
4E,
5B,
1B,
C3,
94,
8D,
C4,
E4,
F6,
E1,
13,
15,
16,
11,
1B,
3A,
0E,
F8,
E9,
F0,
F6,
EE,
F7,
08,
01,
0F,
1C,
3C,
40,
1E,
EF,
B8,
B0,
CF,
E3,
F2,
FA,
E8,
08,
FC,
ED,
04,
15,
32,
F8,
EA,
EF,
E9,
07,
06,
0B,
05,
0A,
14,
1B,
2C,
23,
14,
D9,
CA,
D2,
E2,
F5,
EE,
ED,
1E,
1A,
E9,
F5,
16,
16,
1F,
00,
F3,
E6,
F8,
F9,
0B,
0C,
07,
07,
0A,
15,
1C,
17,
15,
F4,
EF,
E4,
FB,
02,
03,
01,
12,
26,
08,
02,
F7,
0C,
11,
2A,
0E,
E9,
DF,
F2,
08,
0E,
FA,
01,
05,
11,
11,
0A,
09,
FD,
F5,
FE,
F3,
0E,
0F,
09,
EC,
1F,
0F,
08,
F8,
FE,
07,
31,
18,
EB,
EE,
FC,
FB,
FE,
FD,
08,
00,
0E,
12,
0B,
0D,
02,
F1,
F8,
FD,
0B,
17,
09,
04,
F9,
30,
13,
FE,
0E,
0E,
20,
0A,
EC,
F6,
14,
09,
1B,
04,
0D,
08,
00,
0C,
01,
03,
EE,
FD,
F9,
FC,
FE,
FE,
11,
0F,
FB,
23,
15,
00,
11,
0F,
EF,
E1,
DE,
FF,
08,
00,
03,
08,
F9,
09,
10,
12,
F4,
F7,
F5,
F6,
FA,
F7,
0B,
0C,
0F,
0F,
1B,
1B,
04,
D9,
1F,
23,
01,
FB,
EC,
F9,
FF,
FC,
FA,
F5,
ED,
03,
11,
F7,
F3,
EF,
FD,
07,
04,
09,
0B,
0C,
0E,
0A,
0D,
1B,
22,
00,
13,
F5,
0E,
01,
F4,
EC,
02,
EE,
F6,
FA,
EB,
FB,
FF,
00,
00,
06,
FF,
0B,
02,
0C,
03,
FD,
F8,
FB,
0D,
27,
21,
02,
09,
F1,
06,
E7,
F3,
01,
06,
F4,
FF,
F1,
FC,
FD,
FD,
12,
01,
03,
02,
05,
00,
02,
04,
F3,
F6,
00,
FF,
27,
0F,
0B,
1B,
19,
12,
DB,
F7,
F4,
F0,
FA,
F1,
F5,
F6,
F7,
F3,
FB,
03,
03,
FA,
00,
FE,
F1,
F0,
EF,
F3,
EE,
05,
0B,
00,
10,
0E,
29,
2F,
0C,
10,
07,
F0,
F8,
ED,
F8,
EA,
EC,
FA,
FC,
FD,
F4,
F2,
05,
FD,
03,
F8,
F3,
ED,
F3,
10,
0A,
04,
01,
FD,
07,
1E,
09,
FD,
F7,
05,
F6,
F3,
F4,
04,
01,
11,
FD,
02,
FB,
0A,
0E,
11,
07,
06,
F9,
E5,
F1,
05,
17,
FD,
FD,
FC,
17,
02,
1B,
01,
F5,
11,
0E,
FF,
FC,
0D,
F8,
0E,
0C,
FA,
FB,
04,
09,
18,
11,
2D,
1B,
F0,
F1,
1E,
0C,
00,
02,
01,
00,
EE,
13,
22,
39,
36,
34,
18,
FF,
06,
ED,
0A,
05,
FB,
F1,
FD,
0A,
F3,
FF,
F0,
F8,
DE,
E0,
05,
08,
FE,
02,
FD,
FD,
01,
FC,
F6,
F1,
EE,
E9,
D0,
DB,
FC,
E4,
F8,
F7,
E5,
D6,
E9,
02,
FA,
E5,
D8,
CD,
DD,
FF,
01,
00,
01,
03,
03,
FC,
FF,
FF,
FE,
01,
FC,
02,
02,
FB,
FD,
F2,
EF,
C3,
DA,
E6,
E4,
EC,
04,
10,
FF,
04,
FE,
01,
FE,
FC,
02;
