memory_initialization_radix=16;
memory_initialization_vector=
FD,
00,
FC,
00,
FF,
04,
FE,
03,
00,
FD,
FF,
02,
FF,
F9,
E9,
FC,
04,
04,
03,
04,
00,
FF,
02,
FE,
FE,
FC,
FE,
FD,
03,
04,
FF,
00,
00,
FC,
FA,
F2,
00,
08,
11,
0A,
04,
19,
14,
E9,
E7,
EE,
14,
03,
05,
10,
01,
FE,
FF,
01,
00,
FC,
02,
03,
00,
E8,
E9,
03,
0A,
03,
FB,
EA,
F1,
0D,
06,
FD,
05,
EE,
ED,
FA,
F4,
F1,
F8,
01,
05,
EE,
F6,
F8,
02,
02,
FE,
02,
EA,
E2,
0B,
1D,
0F,
19,
12,
EF,
00,
13,
00,
F3,
05,
FD,
FF,
02,
F6,
03,
1F,
12,
03,
FB,
F4,
F6,
13,
FF,
01,
05,
EB,
18,
0F,
04,
FA,
14,
05,
09,
10,
01,
05,
03,
F9,
FE,
03,
03,
FD,
08,
13,
30,
26,
28,
34,
19,
FB,
12,
FF,
FE,
E6,
0F,
06,
F8,
02,
15,
12,
14,
11,
05,
09,
F6,
07,
FA,
03,
05,
F6,
0C,
10,
10,
1A,
26,
1F,
11,
12,
1F,
FC,
0E,
10,
F0,
0F,
1F,
0C,
07,
0D,
0E,
F7,
F4,
FB,
F7,
FD,
FC,
F8,
F3,
F2,
02,
00,
00,
16,
1F,
2A,
FE,
27,
08,
FC,
19,
FF,
F2,
11,
3A,
0B,
08,
09,
03,
FD,
FE,
F3,
F4,
F7,
FA,
F5,
03,
FE,
00,
F8,
F8,
0D,
1A,
21,
09,
26,
11,
22,
F5,
0D,
0F,
15,
18,
F3,
04,
FE,
0E,
F6,
FD,
03,
01,
FC,
FD,
02,
03,
05,
F4,
02,
09,
0A,
0C,
16,
24,
17,
FC,
FE,
02,
11,
F2,
00,
03,
00,
00,
01,
05,
F8,
04,
03,
FA,
F8,
F1,
FD,
0A,
04,
FA,
08,
0B,
05,
13,
16,
19,
09,
E7,
02,
F5,
FE,
08,
FD,
FA,
F3,
04,
08,
08,
08,
06,
06,
F8,
EA,
F0,
FA,
07,
02,
FC,
03,
F7,
01,
06,
17,
0E,
F9,
DA,
FD,
03,
E9,
FC,
EE,
F4,
FC,
FF,
0E,
15,
13,
05,
06,
ED,
EB,
F4,
03,
09,
FF,
FE,
ED,
F4,
E4,
E6,
E6,
FC,
F3,
DF,
FB,
F9,
F7,
E8,
E0,
F6,
06,
0C,
09,
0C,
19,
02,
08,
03,
00,
00,
00,
FA,
FF,
FB,
FE,
02,
F0,
E4,
01,
E7,
DF,
D9,
02,
02,
EC,
F2,
E9,
04,
0B,
06,
0C,
0C,
0B,
FF,
01,
01,
FD,
03,
FB,
F8,
05,
0C,
02,
08,
F5,
02,
F5,
E7,
DC,
EE,
0C,
05,
E6,
F7,
FC,
12,
07,
0A,
0E,
0B,
FD,
FC,
09,
FC,
FF,
FA,
F8,
FD,
FE,
00,
00,
09,
02,
00,
FB,
F1,
D3,
E9,
09,
06,
0D,
00,
0D,
09,
0A,
10,
0C,
03,
03,
FF,
0F,
FE,
00,
00,
F2,
FA,
FD,
04,
07,
07,
16,
1D,
F7,
FB,
02,
E5,
F8,
09,
0E,
0D,
09,
07,
0D,
12,
09,
FF,
FF,
07,
0E,
05,
03,
FC,
F0,
F3,
02,
0E,
0B,
0A,
05,
13,
0A,
01,
E3,
DC,
FE,
0D,
12,
08,
11,
14,
0C,
1B,
07,
08,
FB,
FD,
FF,
09,
FC,
F7,
FB,
03,
0C,
15,
0C,
19,
17,
19,
F5,
E4,
E5,
D9,
E2,
05,
14,
0F,
18,
1A,
16,
0E,
0A,
03,
FB,
05,
1A,
0B,
00,
FA,
07,
FC,
0A,
0B,
10,
1B,
FF,
05,
F3,
E8,
E0,
DA,
FA,
EA,
0A,
26,
0F,
21,
16,
05,
01,
FF,
F7,
05,
04,
FA,
04,
02,
FE,
05,
0D,
09,
14,
19,
F9,
F4,
F4,
DD,
E3,
E4,
01,
04,
FD,
0B,
08,
F8,
F5,
F8,
FF,
11,
FE,
FB,
F9,
F9,
08,
09,
02,
0E,
0E,
0C,
11,
10,
00,
FA,
E6,
E6,
F3,
F3,
F4,
F1,
F6,
EF,
E4,
DB,
E2,
E6,
F3,
F8,
EE,
05,
FC,
05,
07,
0C,
08,
0C,
02,
0C,
0A,
05,
12,
04,
E2,
FF,
11,
FE,
F5,
FD,
00,
EC,
DB,
C7,
CB,
DA,
DF,
E2,
F2,
09,
0C,
0C,
0A,
10,
10,
10,
0E,
18,
03,
18,
19,
0A,
EB,
F1,
21,
04,
02,
04,
0B,
21,
0F,
F1,
EF,
F3,
F0,
F7,
0F,
0E,
07,
0F,
18,
11,
12,
0E,
18,
0F,
05,
07,
F6,
03,
E2,
04,
0F,
04,
03,
FE,
FC,
24,
20,
0E,
0C,
0B,
02,
12,
10,
12,
0D,
1E,
20,
0E,
18,
0A,
04,
F6,
FC,
05,
05,
F7,
E1,
ED,
F4,
03,
03,
01,
FB,
05,
0B,
FE,
12,
14,
0E,
07,
14,
0C,
FE,
0F,
F6,
03,
FF,
FB,
08,
F6,
F0,
FE,
17,
17,
04,
F5,
F6,
00,
04,
02,
FF,
FB,
E4,
DB,
D7,
DE,
E3,
D7,
E5,
F7,
F6,
D6,
C1,
DB,
DD,
E3,
DD,
E0,
D0,
D8,
D4,
EA,
EB,
FE,
FC,
FC,
02,
FD,
FF,
02,
FF,
07,
ED,
EE,
E7,
E4,
E6,
EA,
EA,
E1,
C7,
DE,
CE,
D7,
D5,
DB,
E6,
E1,
E5,
FC,
FC,
02,
FD,
04;
