memory_initialization_radix=16;
memory_initialization_vector=
FD,
FD,
03,
FF,
FD,
03,
FC,
FE,
00,
FF,
FF,
04,
0D,
19,
19,
08,
01,
02,
03,
FF,
FD,
03,
04,
03,
03,
FE,
02,
00,
FE,
04,
04,
01,
FD,
00,
FF,
FF,
FB,
01,
FE,
08,
0F,
06,
F9,
11,
08,
FD,
F5,
07,
04,
F9,
F8,
F5,
FD,
FC,
04,
02,
FD,
FE,
FE,
1F,
1A,
FD,
FE,
03,
FD,
F8,
FA,
07,
2E,
1E,
0A,
1E,
17,
FB,
FD,
08,
03,
03,
F6,
04,
08,
07,
00,
04,
FE,
01,
15,
17,
F1,
F3,
04,
F8,
FF,
00,
FB,
00,
14,
15,
19,
21,
25,
21,
1F,
03,
02,
ED,
F2,
F4,
FF,
12,
F1,
04,
FC,
07,
1C,
0A,
E5,
E2,
09,
07,
12,
05,
FB,
28,
1E,
1A,
20,
2A,
28,
1F,
1C,
10,
01,
DD,
E5,
DE,
CC,
E6,
09,
E7,
FD,
04,
1E,
F5,
E1,
DD,
DE,
DE,
E3,
E4,
EC,
F9,
F2,
F8,
F7,
07,
0F,
08,
14,
15,
14,
12,
10,
F4,
DE,
DB,
E1,
E7,
FD,
0D,
E7,
05,
E1,
DC,
D7,
E1,
DC,
E1,
E6,
E3,
D1,
D3,
F0,
F8,
0D,
1D,
2E,
15,
1A,
23,
18,
02,
E9,
EC,
D6,
F0,
FD,
FC,
EC,
E4,
07,
F0,
ED,
E6,
F2,
EA,
D2,
C7,
D8,
DF,
F7,
07,
1F,
27,
25,
29,
21,
1E,
16,
1A,
FE,
F9,
E7,
E8,
1A,
FB,
F0,
F1,
03,
FB,
F2,
F0,
F8,
DB,
DE,
DB,
DB,
E7,
FE,
0A,
21,
23,
1C,
2E,
2F,
23,
2B,
1A,
03,
E6,
F5,
08,
E8,
FA,
F5,
08,
04,
F0,
E7,
F0,
E4,
E7,
01,
E9,
FC,
01,
FA,
08,
12,
02,
FE,
22,
1D,
13,
21,
17,
13,
01,
04,
06,
E6,
08,
F5,
F4,
F5,
E1,
E0,
E6,
EF,
F5,
00,
0B,
0E,
FD,
04,
08,
08,
F1,
F5,
06,
10,
13,
22,
2A,
07,
00,
16,
1B,
EB,
15,
03,
F3,
04,
E1,
E2,
F1,
FC,
F0,
FB,
0B,
E7,
E7,
F6,
00,
F6,
EA,
F5,
03,
14,
1B,
23,
1B,
11,
13,
02,
22,
FA,
EF,
FE,
EC,
16,
F7,
0A,
00,
F2,
04,
0A,
03,
E0,
DF,
02,
FB,
EB,
F8,
01,
0B,
0A,
0F,
1C,
0E,
EE,
FD,
F3,
1B,
17,
EF,
E7,
06,
20,
06,
12,
08,
05,
02,
07,
05,
FB,
07,
0D,
FC,
F0,
F7,
04,
03,
02,
10,
19,
FE,
F1,
EC,
ED,
06,
F8,
F1,
F6,
FB,
0B,
16,
0D,
FF,
01,
0B,
09,
0D,
07,
13,
11,
05,
F6,
FC,
05,
FC,
09,
1D,
0D,
F4,
04,
E2,
09,
00,
FB,
08,
00,
E6,
0F,
25,
06,
F5,
FE,
FD,
04,
03,
0A,
0F,
FF,
F9,
FC,
ED,
F9,
F7,
00,
02,
F6,
F8,
0D,
CF,
1C,
05,
FA,
0D,
06,
F9,
09,
15,
03,
FD,
FB,
0A,
06,
0A,
04,
FA,
F3,
F5,
03,
FB,
FB,
EE,
F0,
E3,
F5,
EE,
F0,
D6,
09,
0E,
01,
14,
F6,
FE,
FC,
FE,
05,
04,
FC,
F3,
FC,
F6,
F3,
F5,
FB,
06,
09,
01,
FB,
00,
EB,
E0,
E2,
D8,
EF,
06,
1D,
0E,
16,
20,
EC,
00,
EA,
F8,
07,
0E,
0B,
00,
FE,
F1,
DA,
F6,
0F,
12,
05,
09,
F7,
F9,
E8,
D9,
F7,
E7,
F3,
23,
17,
21,
11,
0A,
F4,
E9,
F3,
F5,
FD,
02,
05,
08,
FF,
F3,
01,
11,
11,
0E,
07,
0B,
07,
00,
EF,
EA,
FC,
03,
0C,
28,
11,
1F,
00,
14,
F6,
0E,
0C,
12,
06,
09,
04,
06,
01,
06,
0D,
10,
15,
13,
0C,
0A,
18,
03,
F5,
ED,
F8,
08,
1B,
2D,
0A,
15,
11,
00,
1F,
39,
09,
FC,
12,
0F,
01,
FE,
0B,
02,
04,
11,
1D,
16,
0F,
0E,
0E,
08,
F9,
F4,
E4,
FE,
03,
15,
1F,
FF,
0D,
10,
12,
26,
FF,
21,
14,
0C,
1B,
1A,
03,
05,
08,
18,
16,
0B,
03,
07,
09,
F1,
EC,
DD,
EB,
00,
EF,
0A,
26,
06,
FF,
FD,
25,
14,
EA,
07,
FE,
F8,
10,
14,
13,
0D,
0C,
10,
02,
04,
FE,
0E,
EB,
DC,
D4,
E4,
0E,
11,
0B,
0C,
1D,
02,
FD,
03,
F4,
F7,
05,
F2,
EC,
EA,
FF,
06,
11,
FE,
09,
F5,
E2,
EA,
E8,
FB,
DD,
DC,
FD,
07,
0B,
08,
06,
FC,
07,
00,
03,
FC,
0B,
E6,
D6,
F8,
FF,
FF,
0D,
04,
F7,
FC,
FA,
F6,
E2,
D7,
F2,
D8,
E3,
05,
1A,
F5,
FF,
FF,
E8,
05,
07,
02,
FC,
FC,
00,
14,
08,
16,
07,
08,
F9,
F9,
0A,
1D,
F5,
ED,
1D,
0B,
13,
01,
04,
00,
11,
F8,
F5,
F7,
F1,
EE,
04,
FD,
03,
00,
02,
01,
E2,
D3,
07,
0E,
08,
0B,
17,
1F,
1A,
13,
30,
06,
06,
22,
15,
FB,
00,
00,
FD,
F9,
FC,
00,
FD,
01;
