memory_initialization_radix=16;
memory_initialization_vector=
10,
0E,
FC,
0F,
1B,
E5,
09,
D6,
29,
F8,
E4,
2D,
19,
FB,
E3,
22,
19,
09,
FC,
F5,
0D,
E3,
E9,
1D,
01,
D3,
ED,
16,
CF,
12,
1A,
DC,
E5,
D4,
F8,
E6,
13,
01,
BB,
F9,
00,
AF,
20,
29,
25,
15,
EB,
12,
0D,
14,
E1,
E6,
10,
FC,
09,
01,
13,
F9,
DA,
07,
09,
0D,
10,
1B;
