memory_initialization_radix=16;
memory_initialization_vector=
02,
02,
00,
00,
03,
02,
FF,
FD,
FD,
FD,
04,
00,
00,
FE,
02,
00,
02,
FF,
04,
02,
02,
00,
01,
FC,
00,
FE,
02,
03,
FF,
00,
FD,
FC,
FE,
01,
09,
08,
06,
02,
00,
05,
11,
08,
F3,
FB,
14,
0F,
00,
07,
03,
FC,
04,
04,
01,
00,
FD,
04,
00,
FE,
00,
01,
01,
02,
01,
0F,
1D,
2E,
34,
26,
34,
12,
24,
0F,
06,
FA,
F1,
F5,
08,
0E,
0E,
02,
11,
0A,
FD,
FE,
02,
04,
12,
01,
EE,
13,
1A,
1A,
11,
10,
21,
29,
14,
0A,
10,
0D,
07,
FF,
F7,
08,
FA,
ED,
EB,
EF,
05,
EF,
00,
FE,
04,
01,
1E,
FC,
0A,
25,
1B,
FB,
0A,
10,
12,
09,
F9,
FF,
F7,
04,
0D,
FC,
FF,
09,
FD,
E9,
F3,
E4,
D2,
E5,
E8,
19,
FE,
FF,
11,
0C,
19,
FE,
FB,
F3,
F7,
F7,
FD,
F5,
F7,
09,
12,
0B,
03,
FA,
05,
FF,
F4,
F1,
FA,
07,
FA,
F1,
09,
15,
01,
11,
0D,
19,
1E,
10,
04,
F5,
F0,
F3,
F0,
F5,
03,
1D,
17,
14,
FF,
F2,
EA,
E7,
DC,
EC,
11,
F8,
FE,
F4,
02,
15,
FC,
25,
F7,
19,
3F,
20,
0E,
08,
FC,
F2,
E4,
01,
08,
1F,
28,
11,
03,
F4,
F1,
F9,
F9,
FE,
10,
F6,
E6,
D6,
F8,
0F,
20,
02,
02,
22,
34,
0F,
00,
09,
FA,
FA,
F0,
F1,
FC,
1A,
20,
1C,
FE,
F5,
F1,
FD,
03,
FD,
02,
EA,
CF,
D2,
F9,
FF,
EF,
05,
19,
12,
0C,
02,
FC,
05,
EE,
E6,
D9,
D9,
ED,
0A,
0D,
07,
F5,
E9,
F4,
FF,
02,
EF,
F5,
F4,
F0,
F0,
E0,
DC,
F1,
FD,
19,
FE,
EF,
E7,
DA,
E5,
CF,
CD,
D2,
DC,
FA,
11,
0C,
00,
F7,
F8,
01,
06,
01,
F2,
05,
F4,
E6,
DF,
D5,
EE,
F6,
04,
DF,
DF,
D9,
D0,
C8,
D2,
D1,
E0,
E9,
FB,
17,
24,
14,
FA,
ED,
F6,
FF,
12,
FD,
F4,
FD,
EF,
D5,
C3,
D5,
06,
FE,
FC,
E7,
CE,
CE,
DF,
E3,
E4,
F1,
FC,
06,
0F,
30,
25,
0A,
E9,
E9,
E9,
F9,
F4,
F4,
ED,
FA,
EB,
F3,
E0,
EB,
11,
19,
FB,
ED,
DC,
D8,
E4,
02,
03,
0B,
17,
20,
1F,
1D,
08,
F0,
E2,
ED,
F1,
F4,
F9,
ED,
EF,
F6,
09,
0A,
02,
FE,
17,
06,
04,
F8,
13,
FC,
0D,
11,
17,
1B,
20,
21,
12,
12,
FF,
F9,
EC,
F9,
F2,
EE,
F8,
EA,
FB,
00,
11,
13,
04,
1D,
0D,
06,
0B,
1D,
20,
0B,
21,
10,
17,
07,
12,
0B,
01,
04,
F9,
F7,
F8,
08,
07,
FA,
01,
F9,
07,
02,
11,
1B,
00,
2A,
21,
00,
0E,
16,
23,
14,
22,
05,
1D,
09,
13,
04,
00,
FA,
FD,
00,
07,
16,
0F,
11,
16,
07,
17,
12,
14,
0F,
14,
2C,
1D,
03,
17,
1E,
21,
17,
03,
FD,
07,
01,
F5,
FC,
FE,
F4,
03,
01,
07,
18,
0D,
07,
11,
00,
1B,
17,
00,
F0,
03,
00,
0F,
DB,
1E,
10,
2C,
08,
F7,
FF,
FB,
FE,
F4,
F1,
F1,
F2,
FE,
FF,
11,
17,
0D,
13,
06,
FF,
14,
08,
F6,
F1,
03,
F4,
24,
FD,
F8,
F8,
11,
F6,
05,
03,
F9,
FA,
00,
00,
FA,
FF,
05,
10,
18,
0D,
0D,
10,
F9,
04,
08,
06,
FB,
EA,
04,
1C,
23,
FF,
FC,
FE,
1B,
F7,
FB,
00,
07,
00,
0A,
04,
0F,
13,
01,
06,
FF,
02,
09,
15,
06,
13,
12,
0A,
0A,
FE,
FD,
0E,
F5,
05,
14,
33,
2C,
FA,
FC,
05,
05,
02,
00,
0B,
06,
10,
00,
F8,
FB,
07,
06,
1E,
11,
05,
FE,
10,
14,
06,
FE,
1F,
05,
08,
0D,
2F,
11,
07,
09,
02,
02,
04,
0F,
0C,
07,
00,
FA,
F1,
01,
FD,
01,
12,
11,
07,
06,
14,
03,
EE,
EE,
F8,
FE,
FD,
02,
2D,
11,
0E,
02,
FF,
08,
09,
19,
1E,
1A,
0A,
EF,
FD,
F9,
F0,
E8,
F6,
06,
F9,
02,
0D,
F5,
FB,
EA,
07,
FD,
FF,
04,
02,
13,
0E,
02,
FE,
F9,
FF,
13,
09,
FF,
FD,
EF,
06,
FD,
F1,
EE,
FB,
04,
F3,
18,
11,
EF,
0A,
08,
07,
01,
02,
01,
08,
01,
13,
F1,
FD,
F7,
E6,
F8,
F3,
F0,
F4,
EB,
ED,
F2,
E5,
D9,
EA,
FC,
05,
FF,
09,
11,
0B,
04,
04,
FF,
02,
00,
FC,
F4,
EA,
DD,
E1,
D9,
FC,
00,
09,
F8,
E9,
F2,
EC,
04,
11,
17,
0D,
1D,
FF,
F8,
02,
01,
01,
03,
00,
FD,
FE,
02,
03,
02,
02,
00,
E8,
EA,
E7,
EA,
E0,
D9,
E4,
E4,
E1,
EE,
F9,
00,
F9,
FF,
FA,
FF,
FC,
FE,
03,
FF,
00,
FD;
