memory_initialization_radix=16;
memory_initialization_vector=
FD,
04,
FF,
01,
02,
FC,
FE,
FF,
FE,
FE,
03,
00,
FA,
F7,
E9,
FA,
FE,
FD,
FD,
00,
03,
FC,
FF,
FC,
01,
FD,
03,
02,
01,
FC,
01,
03,
F9,
F9,
F2,
F3,
FA,
01,
04,
0C,
05,
10,
0D,
E9,
E7,
EB,
FC,
F3,
F6,
02,
F8,
F6,
FD,
FF,
FC,
01,
00,
FF,
FD,
FA,
ED,
F6,
F0,
F4,
E0,
D9,
DD,
F3,
F7,
08,
FD,
FA,
F6,
FD,
EC,
02,
FB,
EB,
F5,
E0,
F2,
F1,
02,
FC,
FF,
04,
0F,
EE,
DB,
12,
F5,
08,
01,
EB,
01,
05,
F4,
FD,
07,
0B,
18,
12,
F9,
FE,
10,
FF,
FA,
12,
F3,
E7,
EE,
FE,
03,
03,
1B,
0F,
14,
15,
FC,
12,
1A,
1E,
14,
0D,
0E,
0F,
06,
09,
14,
12,
08,
1E,
23,
1D,
1E,
0C,
FC,
F2,
F7,
05,
FC,
03,
F8,
05,
17,
07,
17,
1F,
14,
0A,
0B,
FB,
FE,
FE,
04,
FB,
F6,
00,
FB,
17,
20,
21,
2A,
1D,
07,
0F,
E5,
00,
FF,
12,
05,
F8,
01,
0B,
0F,
0E,
03,
FB,
FE,
F3,
F9,
FB,
F2,
F0,
ED,
EE,
EF,
F6,
02,
0A,
18,
1F,
09,
EE,
F9,
0B,
01,
0A,
E1,
ED,
1E,
26,
09,
06,
FF,
03,
02,
08,
FF,
00,
F9,
F5,
FB,
FC,
01,
04,
02,
FF,
0D,
20,
05,
F3,
02,
0D,
1D,
EC,
08,
13,
1E,
0B,
FC,
09,
F9,
07,
07,
FE,
11,
11,
04,
FC,
02,
09,
0A,
00,
06,
FF,
13,
06,
00,
07,
11,
FD,
F6,
E5,
19,
06,
06,
07,
02,
FC,
FD,
05,
F7,
02,
08,
11,
FB,
EB,
03,
07,
02,
04,
0A,
0E,
03,
19,
04,
07,
FC,
E5,
F4,
F8,
0B,
0E,
06,
F5,
F3,
FB,
F7,
F4,
01,
05,
07,
04,
F3,
EB,
F1,
13,
0A,
02,
03,
02,
0C,
13,
FF,
D8,
EA,
FD,
F4,
11,
E9,
0E,
FB,
F2,
F8,
FA,
F4,
FE,
03,
04,
04,
F4,
E8,
E7,
EF,
09,
06,
05,
04,
00,
FF,
FC,
FB,
E7,
FF,
F4,
F9,
FC,
F2,
00,
F6,
02,
0E,
09,
F9,
FD,
07,
02,
0E,
0C,
EC,
F1,
FC,
FD,
00,
03,
11,
14,
01,
FA,
20,
F0,
DD,
DE,
02,
FF,
EC,
00,
FD,
0C,
15,
09,
07,
0E,
FA,
02,
FF,
F7,
EE,
FB,
F7,
03,
05,
0B,
0C,
08,
01,
06,
FD,
FA,
E5,
F5,
02,
00,
F0,
07,
06,
1D,
12,
0A,
0D,
10,
00,
02,
06,
FB,
FF,
FD,
FA,
03,
F7,
01,
0A,
03,
00,
FA,
0A,
10,
DC,
EC,
FE,
0B,
23,
06,
08,
0D,
0C,
19,
11,
0D,
03,
01,
02,
FD,
03,
FC,
FE,
F4,
F4,
00,
04,
FD,
07,
03,
03,
06,
01,
EF,
FF,
09,
1E,
0C,
0A,
07,
09,
18,
09,
07,
05,
02,
06,
09,
09,
04,
FC,
F0,
F8,
0A,
05,
00,
F5,
09,
0C,
01,
E8,
F7,
FC,
0B,
13,
01,
1A,
09,
03,
14,
04,
08,
02,
03,
09,
09,
07,
FC,
FD,
03,
F5,
09,
06,
09,
01,
16,
07,
E1,
E7,
0F,
E3,
08,
13,
0D,
0E,
04,
02,
F4,
FE,
03,
FC,
00,
09,
0A,
04,
00,
01,
F6,
FF,
FE,
04,
00,
00,
09,
05,
E9,
E3,
E5,
0C,
EF,
F9,
1B,
03,
0D,
01,
FD,
FB,
00,
F1,
EE,
01,
04,
09,
07,
FB,
02,
0B,
04,
09,
09,
03,
FC,
F2,
E6,
E7,
EC,
FD,
15,
F5,
08,
09,
F6,
00,
08,
05,
01,
FC,
FB,
09,
05,
08,
04,
03,
0D,
17,
0C,
1B,
13,
0B,
03,
EE,
D8,
FA,
10,
08,
F4,
F8,
06,
02,
F2,
08,
0E,
0A,
FD,
F2,
05,
F7,
FD,
0C,
07,
FE,
06,
0C,
11,
12,
00,
11,
04,
DE,
D6,
16,
05,
0F,
18,
F8,
F2,
F8,
09,
09,
03,
FF,
F6,
F3,
01,
FD,
05,
09,
0D,
07,
0B,
11,
1A,
0B,
12,
14,
07,
E7,
ED,
29,
08,
00,
02,
1A,
08,
F4,
ED,
F3,
01,
00,
FE,
00,
FF,
03,
10,
0A,
13,
11,
15,
1B,
11,
02,
04,
FC,
FF,
C9,
F1,
23,
FD,
02,
FC,
07,
1C,
FC,
E6,
FB,
F3,
FB,
0A,
01,
0C,
0D,
18,
19,
09,
13,
FF,
02,
EE,
EC,
F5,
FA,
F1,
CE,
01,
FB,
02,
00,
00,
FF,
E2,
E0,
E3,
03,
07,
0E,
FF,
05,
F4,
FB,
06,
F2,
FE,
FB,
F5,
ED,
D8,
CB,
CF,
F3,
02,
F0,
F3,
F9,
04,
03,
FE,
00,
FF,
EA,
DC,
E1,
E6,
EA,
D9,
E7,
F8,
EC,
C6,
C4,
DB,
D5,
E2,
D9,
C7,
B1,
B8,
C5,
EE,
E7,
FB,
00,
01,
FF,
02,
FD,
01,
FD,
FF,
F2,
ED,
EA,
E6,
D6,
DE,
EA,
E9,
D2,
E5,
D3,
D3,
D4,
E1,
E5,
E7,
E1,
F3,
00,
00,
01,
00;
