memory_initialization_radix=16;
memory_initialization_vector=
FD,
FE,
FD,
FF,
FF,
03,
01,
FF,
FE,
03,
03,
03,
F8,
FF,
04,
02,
FF,
00,
FD,
04,
00,
03,
FE,
FE,
03,
02,
FD,
01,
03,
03,
00,
FD,
F8,
F4,
EF,
EF,
E9,
E8,
ED,
FF,
FF,
F3,
0F,
EC,
FC,
E7,
DC,
E4,
DA,
E2,
EB,
ED,
00,
00,
FF,
FD,
FE,
FD,
01,
EF,
E2,
F0,
DF,
E0,
F3,
0D,
04,
F3,
FE,
FD,
0A,
11,
F9,
EB,
ED,
FF,
12,
1F,
17,
04,
06,
01,
00,
02,
02,
01,
09,
D7,
DE,
F7,
F1,
F9,
EC,
ED,
F0,
F8,
F5,
02,
0C,
02,
00,
FB,
F8,
F7,
E9,
EA,
01,
08,
0B,
19,
FF,
00,
04,
F6,
09,
DD,
0C,
09,
19,
0E,
FA,
FC,
FD,
F5,
EC,
F5,
F2,
F3,
00,
07,
0A,
FE,
03,
F5,
09,
00,
F3,
FF,
DE,
01,
02,
FC,
EB,
EC,
0F,
13,
1C,
0C,
08,
FF,
00,
F7,
F8,
FE,
F7,
F6,
F8,
FB,
04,
03,
00,
FB,
F7,
FA,
F4,
FD,
CC,
F8,
FC,
EA,
09,
00,
08,
FE,
0F,
0C,
FA,
F8,
0B,
05,
F6,
FA,
FE,
04,
0B,
0A,
0B,
06,
00,
0A,
07,
F5,
DC,
D8,
D5,
F5,
FF,
DB,
18,
F8,
F5,
F1,
1B,
FF,
E2,
FA,
02,
FD,
FB,
FD,
F9,
FB,
03,
0E,
0B,
0B,
0B,
19,
0C,
F3,
06,
F7,
DC,
E5,
ED,
FF,
1E,
EA,
EB,
EF,
01,
E3,
F8,
03,
FD,
F5,
EB,
F1,
F9,
FF,
F6,
FF,
0B,
0E,
0B,
0E,
F5,
EE,
F3,
FD,
EF,
EF,
FF,
01,
EC,
F8,
FD,
02,
0B,
F5,
FA,
08,
02,
E6,
E4,
F9,
F1,
EB,
F2,
05,
15,
1D,
1E,
0C,
EB,
ED,
FA,
DB,
DD,
FA,
02,
FA,
F6,
04,
F5,
15,
0E,
01,
FE,
FA,
E8,
F0,
F5,
F1,
E1,
D4,
E5,
0F,
18,
1E,
20,
16,
FE,
F3,
E1,
EE,
CC,
F4,
04,
EA,
EF,
EB,
E8,
FE,
0C,
06,
08,
FB,
00,
04,
0E,
FF,
EA,
D8,
D5,
F5,
08,
20,
29,
1D,
12,
EC,
DB,
E2,
D2,
F6,
FF,
F8,
05,
EB,
FD,
F9,
07,
03,
0A,
03,
0F,
08,
07,
01,
F0,
CD,
CE,
E9,
07,
1E,
1A,
20,
1A,
F7,
D6,
C3,
D5,
09,
FC,
01,
F0,
EF,
0A,
FE,
08,
14,
1D,
0B,
0A,
02,
01,
EF,
ED,
DD,
D8,
F7,
0D,
18,
17,
1B,
23,
FE,
E0,
DC,
ED,
1F,
F1,
F8,
DE,
F8,
07,
FD,
09,
1C,
1D,
12,
00,
01,
FC,
F8,
F0,
E7,
F4,
FF,
14,
27,
28,
1C,
15,
ED,
DD,
FC,
14,
16,
F2,
F4,
E9,
15,
F1,
FC,
FE,
14,
1A,
17,
09,
06,
00,
F7,
F8,
03,
04,
16,
1E,
24,
25,
23,
0D,
E9,
E0,
FA,
19,
17,
0D,
F2,
FA,
F3,
F0,
01,
07,
0D,
11,
0C,
02,
FF,
F7,
ED,
FC,
0F,
14,
29,
2B,
1C,
1F,
21,
09,
E8,
E5,
02,
31,
16,
03,
EB,
06,
F2,
F3,
F8,
09,
0D,
1C,
0A,
00,
E8,
EF,
F9,
07,
17,
25,
23,
29,
13,
0A,
17,
12,
EA,
F5,
24,
11,
38,
F3,
F8,
F3,
FA,
FD,
FA,
04,
10,
13,
0D,
F6,
E6,
F1,
FD,
0F,
22,
23,
28,
26,
15,
01,
0B,
07,
F6,
FE,
10,
1F,
19,
FC,
F4,
F8,
F4,
FF,
01,
FD,
0D,
0F,
FD,
05,
FB,
F4,
F1,
01,
10,
12,
13,
0F,
02,
FA,
08,
FE,
03,
F8,
02,
22,
01,
03,
11,
19,
04,
01,
14,
FF,
FF,
FC,
FE,
01,
02,
F5,
F2,
F0,
F6,
05,
FA,
FF,
02,
F8,
08,
FC,
F7,
10,
F8,
15,
FC,
FB,
17,
10,
12,
06,
14,
FC,
E7,
FC,
FE,
13,
FE,
FB,
F3,
E8,
F1,
00,
F9,
FB,
FA,
EF,
F9,
04,
FB,
08,
E5,
D9,
03,
FB,
F8,
0A,
FC,
EC,
FD,
08,
02,
0B,
00,
0D,
06,
06,
F9,
F2,
F5,
FB,
FC,
F8,
F1,
EF,
07,
0A,
F3,
05,
00,
E4,
02,
02,
FF,
D8,
E6,
D4,
E4,
08,
11,
12,
01,
FA,
0A,
07,
FF,
FD,
F9,
E7,
EF,
EC,
F5,
F7,
05,
FF,
EE,
09,
F6,
DD,
04,
FE,
02,
F6,
DB,
ED,
01,
10,
17,
0A,
14,
04,
0C,
0C,
F2,
EE,
E3,
DB,
F1,
F4,
EE,
FA,
F9,
08,
FD,
06,
16,
08,
04,
04,
FF,
0D,
FC,
04,
15,
05,
FC,
00,
10,
09,
12,
08,
FD,
01,
F5,
F3,
E5,
F5,
FA,
0F,
05,
EA,
E1,
E3,
0E,
04,
02,
04,
FD,
00,
08,
2B,
33,
23,
18,
06,
0E,
06,
EC,
F2,
F7,
0B,
08,
0C,
F5,
FF,
EF,
05,
18,
0F,
1B,
1B,
01,
01,
FF,
FF,
02,
01,
02,
F5,
E1,
0D,
0B,
0B,
FF,
10,
04,
FF,
F2,
FF,
02,
03,
FA,
08,
17,
13,
13,
0A,
DD,
02,
01,
00,
04;
