memory_initialization_radix=16;
memory_initialization_vector=
00,
FD,
00,
01,
FF,
01,
FF,
FF,
00,
01,
FF,
03,
04,
FF,
02,
03,
01,
02,
04,
01,
03,
01,
04,
FF,
00,
FD,
02,
01,
00,
00,
02,
03,
01,
01,
F4,
EB,
F8,
F5,
FD,
09,
FF,
FA,
04,
14,
10,
0B,
F6,
01,
FC,
04,
FC,
04,
00,
00,
00,
01,
FC,
00,
03,
F6,
F2,
F5,
F7,
F7,
FA,
FF,
F1,
D5,
EB,
FE,
F1,
00,
07,
FB,
EA,
F8,
FE,
00,
F9,
0D,
06,
04,
00,
FE,
02,
FD,
1A,
FE,
F6,
FE,
F4,
F2,
03,
FC,
06,
F8,
13,
0D,
0C,
10,
FF,
FD,
F3,
FC,
18,
05,
FA,
F6,
FF,
0D,
0D,
00,
01,
08,
1E,
27,
04,
E7,
F9,
FD,
02,
0E,
00,
14,
11,
00,
F3,
08,
04,
FE,
0B,
F9,
F3,
F9,
F6,
F7,
0D,
09,
1F,
FE,
03,
FF,
09,
0B,
07,
18,
14,
07,
01,
0C,
F6,
F6,
E8,
EC,
F6,
00,
03,
F3,
F4,
F1,
F1,
F2,
F6,
F2,
FE,
13,
1D,
FB,
03,
06,
17,
0E,
0A,
1C,
17,
02,
01,
F8,
06,
04,
F3,
F3,
EE,
F3,
F1,
FB,
FD,
F3,
F6,
F2,
E9,
FA,
0B,
19,
1C,
07,
00,
1C,
FD,
06,
12,
08,
0F,
14,
09,
07,
10,
FE,
FF,
FC,
04,
FA,
FE,
04,
02,
FA,
F7,
F1,
06,
07,
FC,
03,
06,
0B,
11,
0A,
F1,
04,
FD,
08,
10,
11,
09,
05,
0C,
09,
0F,
0A,
0C,
13,
15,
14,
0C,
09,
04,
F7,
07,
09,
0C,
07,
12,
15,
08,
03,
FB,
0B,
20,
11,
16,
17,
17,
0F,
16,
12,
15,
1B,
1D,
1A,
20,
16,
0A,
04,
F9,
F2,
06,
0F,
1D,
2E,
1D,
11,
05,
02,
0E,
19,
19,
04,
0E,
0D,
0F,
0E,
1A,
1E,
16,
2F,
2D,
23,
1A,
11,
0C,
00,
00,
F3,
00,
03,
15,
21,
24,
FF,
08,
09,
21,
1D,
1E,
05,
02,
FF,
F2,
02,
11,
14,
13,
22,
1E,
11,
FB,
08,
08,
FB,
FB,
D9,
E1,
F1,
FA,
13,
20,
FD,
FF,
07,
15,
FF,
04,
FC,
F4,
FB,
FF,
FF,
05,
FD,
05,
03,
01,
F5,
F3,
01,
06,
F3,
F5,
DF,
DC,
D8,
C6,
DA,
05,
FE,
0E,
07,
17,
F3,
D7,
EA,
ED,
F3,
F3,
F9,
E5,
ED,
EA,
F2,
F2,
E7,
F1,
05,
0B,
FE,
F7,
F4,
E4,
DE,
E3,
D6,
F8,
FB,
09,
03,
1E,
F5,
E0,
EB,
EA,
E4,
FC,
F8,
F3,
E5,
EA,
ED,
F7,
00,
FB,
04,
0E,
0C,
FF,
02,
FD,
0D,
1A,
D6,
E9,
F5,
0A,
0C,
11,
F3,
F9,
F9,
F1,
E8,
F0,
01,
F2,
ED,
F3,
F6,
F8,
F9,
EF,
F7,
05,
07,
03,
FF,
FA,
0E,
18,
E5,
ED,
14,
00,
0B,
18,
08,
FC,
EB,
EB,
EF,
FB,
F4,
F3,
EF,
F1,
FC,
EC,
EF,
EE,
F2,
FE,
0E,
04,
09,
00,
04,
19,
CD,
F0,
20,
04,
0A,
FC,
24,
FE,
EB,
F4,
F3,
FD,
F6,
F3,
F2,
F6,
F0,
F0,
F0,
F4,
FE,
FA,
0B,
0B,
08,
01,
09,
07,
F0,
FB,
14,
17,
09,
01,
0E,
FC,
01,
FE,
F8,
FE,
F0,
F5,
F8,
F5,
F7,
F1,
FB,
03,
03,
FF,
00,
0A,
0C,
18,
0B,
00,
FC,
01,
19,
07,
1C,
06,
06,
13,
08,
FE,
F8,
00,
F9,
F7,
F0,
03,
0C,
FB,
04,
FF,
04,
02,
FF,
02,
0E,
1A,
0F,
12,
F8,
03,
15,
01,
10,
EF,
0A,
02,
01,
00,
00,
02,
FF,
FC,
FC,
00,
0C,
FF,
FD,
FF,
08,
14,
09,
02,
12,
1F,
1B,
FD,
D5,
07,
08,
07,
FA,
FA,
FE,
FB,
00,
08,
09,
FE,
FD,
07,
07,
0F,
0D,
04,
FD,
03,
02,
18,
0A,
08,
0A,
0B,
10,
04,
D6,
F3,
04,
06,
0C,
FA,
04,
11,
0D,
05,
03,
F7,
FB,
F6,
FC,
01,
FB,
00,
02,
04,
17,
16,
08,
02,
F3,
06,
0E,
FF,
EF,
12,
FE,
FF,
02,
18,
18,
22,
1B,
0D,
06,
F2,
FB,
FC,
09,
FA,
FD,
00,
0E,
0A,
0A,
F5,
EB,
FB,
E5,
EA,
F4,
05,
EA,
10,
FC,
03,
02,
00,
28,
1E,
15,
14,
0B,
05,
04,
05,
08,
0E,
18,
1D,
11,
FD,
FF,
EB,
EE,
D9,
E0,
DE,
EE,
06,
EC,
0D,
FD,
FC,
FC,
FC,
F9,
09,
F9,
18,
1F,
25,
14,
09,
10,
27,
1E,
1B,
16,
13,
02,
F7,
0A,
EC,
EE,
04,
10,
21,
FD,
00,
FC,
04,
FC,
FD,
FD,
D8,
DB,
E6,
FA,
02,
FB,
0C,
15,
0B,
1C,
03,
0F,
0C,
0B,
03,
13,
F1,
D6,
F6,
0F,
FA,
05,
FD,
01,
03,
00,
FD,
FE,
11,
1E,
03,
F9,
06,
09,
0D,
02,
0B,
21,
14,
F6,
F8,
0F,
FD,
F7,
F8,
FA,
04,
1C,
03,
02,
FE,
04;
