memory_initialization_radix=16;
memory_initialization_vector=
0D,
CE,
14,
04,
D8,
11,
C0,
C0,
CB,
12,
F3,
CE,
1D,
FC,
D7,
0A,
0D,
FF,
F1,
06,
05,
E4,
1B,
0F,
E2,
E1,
0F,
01,
10,
FA,
A6,
0B,
AE,
F1,
00,
0E,
10,
1A,
40,
FA,
11,
CF,
09,
0B,
D7,
F3,
0C,
09,
0A,
0B,
1A,
09,
0C,
FA,
E8,
0A,
DD,
13,
D6,
03,
0C,
F0,
E9,
01;
