memory_initialization_radix=16;
memory_initialization_vector=
FD,
03,
00,
FC,
FC,
02,
01,
04,
04,
FE,
FE,
FD,
01,
FF,
05,
04,
FD,
FD,
02,
03,
FE,
02,
00,
FF,
01,
FC,
00,
FD,
01,
FD,
00,
04,
FD,
FD,
FC,
FC,
FD,
FE,
EE,
EF,
E1,
F2,
09,
E3,
FC,
F0,
EA,
E1,
EB,
F6,
FB,
F8,
01,
FF,
01,
03,
FC,
03,
03,
02,
FD,
F4,
FD,
F6,
04,
15,
0F,
FA,
05,
FF,
F3,
E2,
E1,
DE,
DF,
C5,
DC,
E1,
EF,
F3,
09,
09,
FE,
FF,
FF,
FD,
19,
03,
F5,
F7,
FB,
02,
10,
0C,
1B,
09,
FC,
E8,
F2,
05,
00,
FC,
F8,
DF,
F6,
09,
08,
16,
14,
1E,
F2,
00,
FE,
03,
1B,
1B,
F0,
F0,
03,
13,
07,
13,
15,
14,
19,
05,
06,
08,
00,
FA,
FA,
EF,
F6,
E7,
F3,
FA,
15,
13,
07,
F6,
FC,
00,
0A,
10,
F9,
03,
14,
11,
0D,
11,
0E,
13,
17,
10,
07,
0B,
0B,
00,
03,
F2,
FF,
05,
FF,
F2,
FF,
1A,
00,
F7,
FC,
12,
09,
1E,
16,
14,
1C,
10,
0F,
20,
17,
0F,
12,
0F,
15,
1C,
18,
17,
14,
06,
02,
10,
03,
06,
FC,
FE,
F3,
EC,
04,
2A,
1F,
27,
1F,
11,
28,
0F,
1A,
14,
14,
02,
13,
21,
11,
14,
12,
04,
0E,
09,
02,
07,
10,
0E,
FF,
FB,
FE,
EE,
DD,
1A,
04,
0D,
10,
0F,
1F,
0E,
0F,
08,
15,
0D,
15,
20,
18,
19,
16,
06,
17,
03,
02,
FC,
10,
0E,
01,
11,
1A,
09,
08,
20,
FF,
19,
01,
18,
16,
01,
0D,
0F,
15,
0B,
1F,
1A,
1A,
14,
06,
11,
07,
01,
08,
04,
10,
01,
F0,
17,
35,
28,
09,
0B,
08,
0E,
FE,
12,
13,
05,
01,
00,
0F,
04,
0D,
0D,
12,
FB,
06,
05,
FE,
00,
05,
0C,
0F,
03,
E6,
04,
19,
1A,
0D,
F3,
01,
10,
F5,
04,
04,
00,
F4,
F8,
F2,
02,
05,
02,
03,
FF,
FB,
00,
07,
FE,
0F,
FA,
05,
03,
0A,
1B,
16,
05,
05,
05,
FC,
FE,
E0,
EC,
DA,
D9,
E0,
E2,
DE,
E4,
F7,
F5,
FB,
08,
03,
03,
0D,
0F,
05,
F6,
EA,
FC,
FD,
14,
FE,
FD,
E8,
03,
08,
F9,
D0,
C3,
C4,
D6,
E8,
DA,
D4,
ED,
EC,
F4,
FF,
04,
09,
06,
0E,
FF,
F4,
EF,
EE,
F4,
04,
10,
03,
0B,
F4,
01,
07,
F3,
DC,
C0,
DD,
E0,
E2,
DB,
E5,
F6,
F2,
F9,
05,
06,
FE,
0F,
05,
0B,
ED,
E9,
EC,
F3,
03,
00,
0C,
0A,
F6,
02,
F9,
FE,
F3,
D8,
E0,
EA,
ED,
ED,
F9,
FC,
ED,
F9,
FC,
0C,
09,
09,
00,
FB,
F3,
EF,
01,
FE,
0C,
EA,
F8,
14,
09,
0A,
0D,
FA,
F8,
D5,
EA,
F9,
F8,
0C,
09,
F1,
EC,
F5,
F9,
07,
0A,
0C,
06,
F9,
FF,
12,
05,
0C,
04,
F4,
04,
15,
FE,
02,
0A,
FD,
00,
F3,
F8,
02,
01,
0C,
FB,
00,
F0,
F1,
03,
0C,
12,
06,
F3,
F1,
FD,
0A,
01,
0A,
0F,
15,
0B,
19,
1C,
0D,
08,
0A,
F4,
03,
0A,
07,
0A,
05,
0B,
07,
EC,
FC,
0A,
0D,
11,
01,
F5,
FD,
0B,
04,
0B,
0D,
0E,
01,
12,
03,
F4,
20,
F7,
FC,
00,
02,
FE,
0D,
14,
0C,
05,
F2,
FB,
14,
0B,
0C,
11,
01,
FF,
04,
FB,
F5,
FC,
10,
06,
F4,
16,
F0,
00,
13,
FB,
0E,
FB,
0A,
0B,
0E,
16,
FA,
F6,
F6,
FA,
0B,
F9,
03,
FB,
F7,
F7,
FC,
00,
FA,
EA,
0A,
03,
F0,
01,
EF,
F2,
07,
2A,
12,
06,
FF,
07,
00,
01,
00,
FE,
FB,
FA,
FB,
F4,
F8,
F7,
F7,
F9,
FF,
EE,
EE,
F7,
05,
F2,
EC,
E0,
FD,
EF,
FF,
2A,
05,
0F,
03,
17,
1C,
05,
F8,
02,
09,
FB,
FC,
FB,
F5,
F1,
F5,
EF,
EA,
EC,
E4,
04,
02,
07,
F6,
E5,
01,
01,
02,
07,
F6,
06,
FF,
02,
1A,
02,
FB,
01,
08,
F8,
02,
F8,
02,
F9,
F5,
F0,
ED,
F4,
FA,
06,
11,
05,
F7,
DA,
01,
02,
04,
18,
03,
12,
01,
0B,
06,
0A,
F9,
07,
0C,
07,
0F,
02,
FF,
F1,
EE,
F6,
0C,
FF,
FA,
F8,
02,
01,
06,
05,
FF,
01,
FF,
EB,
F7,
02,
FC,
0D,
0D,
1C,
0F,
1A,
16,
19,
13,
1B,
11,
23,
20,
0B,
02,
F5,
E2,
CF,
E1,
EC,
01,
08,
03,
03,
00,
04,
02,
E6,
E1,
ED,
19,
32,
2B,
26,
1A,
17,
2D,
30,
0C,
0B,
12,
23,
1D,
1A,
13,
FB,
F6,
F8,
04,
FD,
FE,
04,
01,
04,
02,
13,
1D,
18,
0F,
15,
16,
14,
05,
10,
21,
24,
03,
08,
1E,
1C,
1C,
07,
01,
FF,
06,
04,
04,
03,
02;
