memory_initialization_radix=16;
memory_initialization_vector=
03,
FC,
02,
04,
02,
FF,
03,
FC,
FD,
03,
01,
FF,
09,
03,
FF,
05,
FF,
FD,
02,
00,
01,
FF,
FE,
FC,
00,
04,
04,
02,
FD,
01,
FF,
03,
06,
06,
0B,
0C,
09,
09,
0F,
14,
24,
09,
F3,
2B,
1E,
19,
0F,
10,
13,
0D,
07,
09,
00,
00,
FC,
FE,
FD,
03,
01,
04,
12,
08,
0C,
12,
29,
3E,
40,
50,
1A,
19,
20,
47,
40,
2D,
19,
17,
16,
18,
14,
13,
16,
0D,
FD,
04,
00,
04,
1F,
06,
FB,
F2,
04,
09,
16,
23,
10,
18,
12,
1E,
04,
0C,
17,
09,
FD,
06,
E7,
F9,
03,
07,
0F,
F1,
04,
FC,
00,
FB,
1F,
EC,
F6,
F9,
15,
FE,
1B,
15,
20,
1E,
18,
13,
08,
03,
03,
F5,
F6,
FD,
F2,
E9,
E8,
E3,
C8,
DA,
E5,
12,
03,
FF,
25,
FE,
FD,
04,
07,
12,
0C,
0C,
1B,
06,
05,
08,
03,
FC,
FE,
F2,
F8,
FB,
ED,
F6,
FF,
00,
F2,
D8,
F6,
10,
01,
15,
F8,
F8,
ED,
E7,
F5,
FB,
E5,
FF,
10,
13,
06,
05,
06,
0B,
03,
F6,
02,
FA,
E9,
EF,
09,
FD,
F6,
F0,
FC,
11,
FC,
23,
F7,
E5,
E6,
E0,
E5,
EB,
E5,
FC,
0C,
16,
11,
11,
12,
0A,
FE,
01,
FD,
FB,
00,
07,
04,
F8,
E8,
DD,
F3,
11,
01,
12,
F2,
DE,
E5,
E7,
DB,
F0,
E3,
F5,
01,
0E,
0D,
0C,
0C,
04,
F7,
06,
FD,
01,
04,
F7,
02,
EB,
C6,
BC,
F3,
F0,
03,
0D,
F9,
F1,
EA,
E1,
DB,
F6,
F8,
F4,
F9,
FF,
FF,
F6,
FD,
FC,
F5,
F2,
F9,
F3,
FA,
02,
07,
ED,
D6,
DB,
06,
1A,
FD,
13,
E9,
E2,
E0,
CD,
D6,
F3,
FC,
F0,
ED,
FC,
E8,
E7,
FC,
FB,
01,
FA,
F8,
FB,
FC,
06,
FA,
EE,
E2,
E7,
10,
14,
01,
07,
DC,
E5,
DF,
C9,
E0,
EE,
F6,
EC,
D7,
E9,
D5,
EE,
05,
04,
F1,
E1,
EE,
FF,
02,
15,
13,
01,
E2,
EE,
E7,
19,
04,
F8,
E3,
E7,
CF,
C3,
E5,
E2,
ED,
F5,
E1,
E1,
EC,
01,
1A,
FF,
F1,
F0,
FA,
FA,
04,
06,
0D,
EB,
F5,
0F,
0E,
25,
11,
F0,
F6,
F8,
D5,
DA,
F4,
E8,
F1,
FD,
F4,
FB,
05,
21,
1C,
04,
FC,
F2,
01,
05,
01,
0A,
07,
08,
19,
1D,
20,
15,
03,
EB,
F2,
11,
F1,
FA,
0B,
03,
0A,
04,
06,
11,
1F,
24,
20,
07,
FB,
F2,
04,
05,
04,
11,
09,
FD,
0D,
FC,
28,
12,
07,
F9,
08,
13,
01,
15,
13,
12,
15,
13,
11,
1E,
1F,
21,
14,
04,
FA,
F6,
06,
FB,
EF,
03,
EB,
EE,
FF,
EB,
F9,
1A,
03,
FA,
03,
01,
0C,
1D,
0A,
1B,
17,
17,
16,
28,
14,
0C,
09,
F5,
EE,
F6,
F7,
F6,
E6,
F8,
F5,
F8,
05,
14,
14,
1E,
01,
F6,
FC,
03,
07,
06,
0A,
07,
0E,
12,
28,
23,
18,
0A,
07,
EF,
E6,
EC,
FC,
F8,
EE,
F4,
F9,
F4,
07,
2C,
19,
0C,
FC,
08,
F7,
06,
03,
F9,
EE,
0D,
0B,
18,
15,
00,
FE,
F5,
F7,
F1,
FA,
06,
0B,
F7,
F6,
FA,
FC,
09,
11,
40,
2B,
27,
0A,
EA,
EC,
F1,
F9,
EC,
F5,
00,
06,
17,
08,
FD,
F6,
FD,
F3,
F9,
06,
0C,
01,
F5,
FA,
02,
0B,
1A,
0B,
35,
24,
1A,
FE,
E1,
FD,
05,
F8,
F0,
F8,
07,
0D,
14,
08,
09,
FF,
F7,
02,
FE,
0E,
03,
0B,
00,
03,
08,
0D,
15,
F9,
07,
15,
15,
0E,
11,
0C,
1B,
06,
F9,
F9,
0B,
0B,
0D,
0A,
00,
09,
09,
10,
04,
06,
06,
08,
04,
0E,
0B,
00,
10,
F3,
F3,
18,
FD,
09,
06,
0D,
09,
0B,
1C,
04,
01,
0A,
09,
09,
04,
06,
01,
FF,
00,
04,
FB,
FE,
08,
0F,
03,
F9,
F6,
E7,
F4,
F2,
FF,
03,
00,
FA,
E0,
FF,
01,
07,
02,
F2,
F9,
FE,
05,
0F,
0A,
01,
F1,
F8,
EF,
EF,
FC,
02,
F7,
FF,
E4,
DA,
EB,
05,
FC,
03,
02,
F2,
D6,
F3,
F9,
F0,
E9,
EE,
F2,
F5,
00,
FE,
F4,
FC,
EB,
E6,
FE,
E6,
E0,
DD,
ED,
F0,
D1,
F5,
0D,
04,
01,
03,
01,
F9,
1B,
18,
FD,
FE,
01,
00,
F5,
02,
03,
07,
FD,
F4,
EF,
EE,
EA,
BB,
BD,
EB,
E6,
E6,
D9,
E7,
08,
03,
03,
FE,
02,
03,
F5,
E8,
E0,
DC,
F9,
08,
0F,
14,
FA,
E0,
F4,
E1,
F1,
E8,
D3,
D4,
DB,
DF,
E6,
F6,
FD,
FF,
FD,
FD,
03,
01,
00,
FD,
01,
06,
07,
00,
FC,
FE,
F8,
04,
FF,
F1,
EE,
F9,
FA,
FF,
F7,
F3,
F4,
FC,
FD,
FF,
02,
04,
FE,
FD,
02;
