memory_initialization_radix=16;
memory_initialization_vector=
02,
FE,
FF,
FD,
FE,
01,
00,
FC,
FD,
00,
03,
FF,
0D,
09,
01,
00,
FD,
03,
01,
02,
02,
00,
02,
FF,
01,
FE,
FE,
00,
02,
FC,
FE,
02,
05,
01,
FF,
07,
0B,
0C,
15,
23,
1F,
2B,
1B,
29,
10,
21,
1C,
1D,
1F,
19,
15,
0E,
02,
FC,
FC,
FC,
04,
00,
06,
0A,
0D,
03,
03,
0A,
0E,
FB,
08,
20,
01,
0F,
0B,
0C,
12,
11,
1A,
27,
18,
19,
26,
19,
FD,
F8,
03,
FF,
04,
02,
EC,
11,
12,
FF,
F5,
F5,
E4,
FB,
02,
EF,
E9,
0A,
FC,
F9,
F2,
FB,
0A,
0C,
07,
18,
12,
31,
14,
F1,
08,
FD,
01,
03,
E8,
F7,
DE,
D4,
BA,
CC,
DA,
FC,
00,
F0,
F0,
F8,
FD,
05,
02,
02,
02,
0A,
10,
0D,
06,
1B,
F8,
F4,
11,
1A,
01,
FF,
14,
F0,
E7,
E3,
D7,
E2,
D3,
EF,
F5,
F6,
F3,
FC,
0B,
0D,
F9,
0A,
06,
14,
1E,
0F,
FC,
00,
11,
FA,
28,
22,
01,
F0,
EF,
EA,
E6,
E6,
E6,
E2,
DF,
E4,
E8,
F5,
F5,
07,
0A,
0A,
10,
08,
04,
09,
16,
FA,
FA,
0C,
0F,
26,
FC,
20,
FD,
DB,
E6,
E9,
CF,
D9,
D5,
D7,
E1,
ED,
F9,
F8,
05,
02,
0F,
17,
12,
04,
03,
02,
07,
09,
0F,
0B,
FC,
02,
F6,
19,
01,
E3,
F5,
F6,
DD,
D3,
F1,
E7,
F2,
FA,
FB,
FC,
00,
0D,
0F,
0B,
0B,
00,
F8,
F5,
ED,
01,
F8,
EC,
0C,
FB,
FE,
09,
F3,
ED,
EE,
F1,
CC,
BE,
E9,
EF,
04,
09,
10,
08,
01,
09,
0C,
10,
02,
F6,
EB,
EA,
ED,
ED,
DF,
E8,
0D,
11,
FA,
E4,
F5,
FB,
FE,
F5,
CF,
B6,
D5,
F1,
0B,
08,
0E,
06,
04,
07,
14,
12,
F8,
EC,
F6,
F3,
F2,
F2,
DB,
FC,
08,
00,
F7,
E8,
F8,
F1,
08,
E8,
D5,
D8,
E2,
F9,
06,
FF,
FB,
F7,
02,
18,
1F,
0A,
01,
F8,
01,
00,
00,
F6,
DE,
FF,
17,
FC,
1F,
EF,
02,
F6,
01,
F6,
E0,
DD,
F3,
04,
08,
09,
FC,
0B,
09,
1D,
21,
10,
FF,
04,
FF,
07,
00,
F9,
EB,
07,
F1,
E2,
F4,
DD,
17,
FA,
EB,
EB,
DA,
DE,
E1,
05,
03,
04,
01,
02,
1B,
19,
12,
10,
01,
F4,
F6,
0B,
FC,
E5,
E8,
DE,
D1,
DB,
E3,
00,
FC,
FC,
F0,
F4,
E3,
E3,
DC,
F2,
F7,
03,
03,
0D,
0E,
18,
04,
06,
00,
F5,
01,
FD,
06,
EC,
E3,
D2,
D6,
F5,
E6,
F6,
F4,
FB,
F0,
E9,
E9,
EA,
F0,
F2,
FA,
FA,
04,
15,
16,
0C,
01,
EB,
FC,
FA,
07,
05,
04,
02,
E5,
D1,
DF,
F5,
D5,
F4,
F3,
FA,
F4,
F1,
E9,
E3,
E4,
EF,
FD,
FA,
09,
1D,
14,
FD,
F9,
EC,
F7,
F0,
03,
FA,
05,
F6,
F7,
E5,
EE,
EA,
E2,
EA,
FD,
02,
E5,
03,
FD,
EA,
EB,
F2,
F8,
FD,
0F,
15,
0B,
FF,
FE,
F9,
FD,
F9,
F8,
01,
05,
00,
EB,
E4,
E7,
DA,
F1,
F5,
F8,
EE,
EB,
FF,
0C,
02,
F6,
F6,
F6,
07,
0B,
02,
04,
FF,
03,
01,
F9,
01,
02,
02,
04,
F4,
DC,
E7,
D7,
F1,
E6,
F2,
0E,
ED,
0C,
F7,
05,
01,
FF,
F9,
F6,
04,
00,
F2,
F1,
F7,
FE,
02,
09,
04,
0E,
0E,
03,
F5,
03,
F1,
F1,
FD,
E9,
ED,
FE,
EF,
05,
E0,
0B,
0F,
FC,
ED,
EF,
F8,
FE,
F8,
03,
09,
0C,
0D,
0F,
0D,
19,
12,
08,
FA,
03,
EB,
FE,
06,
FE,
10,
0D,
F1,
DC,
EA,
09,
0C,
04,
FE,
F7,
FF,
F9,
FF,
03,
11,
0D,
10,
08,
10,
0D,
04,
0D,
0A,
EF,
E5,
F0,
FB,
E3,
00,
12,
05,
D9,
FD,
04,
02,
04,
02,
FD,
00,
05,
05,
0B,
0F,
10,
15,
13,
0E,
05,
F8,
09,
F5,
DF,
F1,
01,
F6,
EC,
FE,
03,
FC,
0A,
FA,
FA,
0B,
F7,
FC,
08,
09,
0A,
09,
14,
07,
05,
0F,
0F,
0C,
01,
02,
04,
F5,
F5,
EB,
F3,
ED,
EC,
FC,
03,
FF,
0A,
ED,
E0,
F7,
01,
03,
0D,
11,
16,
0A,
13,
00,
F7,
00,
14,
00,
FF,
EB,
F6,
EE,
F2,
0F,
ED,
EE,
FE,
03,
FF,
FE,
1A,
FD,
D6,
F9,
FC,
FF,
00,
0A,
0A,
02,
06,
00,
FF,
FA,
0E,
19,
00,
F5,
F9,
EC,
F8,
F7,
F1,
02,
FE,
00,
FC,
00,
00,
10,
21,
1F,
0C,
0F,
07,
0A,
16,
20,
19,
07,
1A,
0F,
0E,
28,
12,
EF,
11,
FB,
EE,
1F,
01,
FF,
FF,
FC,
FE,
00,
FE,
01,
00,
F9,
F5,
FC,
F7,
F8,
04,
10,
08,
F6,
17,
1B,
17,
10,
22,
13,
F0,
E4,
E7,
01,
01,
01,
03,
02;
