memory_initialization_radix=16;
memory_initialization_vector=
FE,
01,
FC,
03,
FE,
02,
02,
FE,
FE,
FD,
FE,
FF,
04,
FE,
01,
00,
01,
02,
FF,
00,
03,
00,
01,
03,
03,
FC,
00,
01,
FC,
FF,
FC,
00,
02,
FD,
01,
05,
01,
FF,
07,
0F,
08,
04,
FB,
00,
03,
08,
FF,
FB,
01,
01,
FE,
FE,
04,
FE,
01,
04,
04,
04,
04,
FF,
00,
FD,
03,
FF,
16,
1E,
22,
11,
0E,
ED,
EC,
DE,
D0,
EC,
E5,
E4,
E3,
EA,
F0,
12,
09,
04,
02,
00,
FE,
FC,
FE,
FB,
F3,
F4,
F9,
F1,
FB,
10,
08,
11,
17,
19,
14,
01,
F6,
05,
17,
1B,
10,
F7,
ED,
DA,
01,
17,
1C,
FC,
00,
F8,
FC,
EE,
F5,
02,
29,
0D,
04,
0E,
01,
0F,
09,
10,
07,
09,
FC,
07,
15,
0C,
0B,
02,
FE,
F0,
EC,
FC,
25,
F8,
02,
FF,
10,
13,
1D,
16,
1F,
0B,
1E,
14,
14,
0A,
0B,
14,
1B,
12,
13,
0C,
0E,
0B,
0F,
14,
11,
03,
FF,
18,
08,
E4,
02,
16,
FF,
1D,
1C,
2A,
1B,
0D,
18,
18,
1A,
15,
1C,
16,
14,
12,
10,
0E,
0F,
11,
0D,
17,
0B,
F3,
06,
05,
19,
F9,
06,
1A,
1F,
26,
08,
F8,
08,
0B,
16,
1A,
1F,
24,
1E,
1D,
1B,
11,
1F,
19,
1E,
1A,
14,
10,
05,
F8,
F5,
EE,
F5,
F7,
1D,
0F,
17,
FB,
EE,
EF,
ED,
01,
0C,
10,
1C,
1E,
21,
1E,
2C,
20,
21,
1E,
17,
17,
1A,
04,
0F,
0F,
EC,
DD,
F4,
01,
06,
04,
01,
F0,
F0,
ED,
E2,
FB,
FA,
F7,
02,
00,
15,
0F,
13,
0B,
0E,
13,
0F,
0E,
02,
FB,
18,
18,
F1,
F4,
D8,
F5,
06,
04,
07,
FC,
F6,
EE,
ED,
E6,
ED,
EF,
EE,
F2,
F8,
04,
F2,
F3,
03,
FE,
FC,
F6,
01,
FC,
0B,
F6,
F1,
F4,
FF,
F8,
07,
05,
FA,
09,
F3,
ED,
F1,
E5,
E9,
F2,
F5,
FB,
EB,
DD,
CC,
DC,
E7,
F7,
FB,
F3,
FC,
FB,
04,
F3,
FA,
EF,
15,
EA,
01,
06,
F5,
FB,
E7,
DD,
F2,
F6,
FD,
FE,
FD,
F8,
EB,
D0,
D3,
E3,
F0,
F7,
FE,
F2,
F4,
F1,
F6,
EF,
06,
F8,
09,
F3,
FF,
06,
09,
1A,
E4,
D9,
F3,
FC,
FE,
02,
FD,
F6,
F1,
F4,
F7,
E6,
F1,
FD,
00,
F3,
ED,
F0,
E9,
EC,
F8,
E8,
F6,
05,
0A,
FF,
14,
25,
EB,
EF,
F3,
0F,
03,
03,
F8,
EE,
F3,
F3,
F5,
F9,
ED,
F6,
F8,
F6,
E7,
F2,
EC,
ED,
06,
F3,
16,
14,
09,
F4,
0B,
10,
EC,
F6,
FA,
0B,
FB,
FC,
F5,
ED,
F4,
EF,
F0,
F7,
F2,
FA,
F2,
EC,
F4,
07,
EA,
F4,
1B,
FC,
23,
0F,
03,
F6,
F4,
F7,
E6,
F2,
F8,
08,
06,
FD,
FC,
F5,
FC,
F9,
F0,
F6,
F7,
F7,
F3,
FA,
F4,
07,
ED,
F6,
11,
05,
15,
1F,
01,
F2,
E2,
ED,
E9,
F9,
EC,
F5,
FE,
F0,
FD,
F8,
F9,
F2,
F0,
EA,
F4,
FA,
F8,
FE,
FD,
EF,
F2,
F3,
00,
3C,
1C,
1A,
07,
FF,
DC,
FD,
F3,
F9,
F0,
06,
04,
FE,
FF,
ED,
F2,
E5,
E1,
F3,
04,
0C,
08,
FC,
FE,
00,
04,
FA,
04,
21,
19,
1C,
F5,
00,
FC,
FD,
FD,
FD,
03,
03,
0B,
FE,
FF,
FA,
FD,
FA,
F6,
01,
05,
0B,
01,
F7,
06,
FB,
00,
EF,
FA,
0A,
08,
14,
04,
0A,
15,
14,
FD,
09,
0C,
16,
17,
0E,
05,
0B,
11,
11,
13,
11,
10,
0B,
F8,
03,
01,
06,
F9,
F8,
EF,
FD,
FD,
F8,
EF,
11,
1F,
0E,
00,
01,
01,
06,
07,
0C,
15,
17,
1F,
24,
20,
19,
1E,
0E,
08,
11,
06,
03,
0E,
18,
13,
11,
23,
02,
EF,
F2,
1B,
03,
00,
07,
0E,
0F,
0F,
14,
13,
13,
1E,
18,
1B,
1C,
14,
15,
0F,
15,
FF,
FA,
07,
10,
FE,
05,
F7,
00,
03,
02,
F8,
00,
19,
15,
22,
15,
01,
0C,
14,
1D,
1A,
0A,
13,
0A,
06,
09,
01,
03,
03,
FB,
0C,
09,
07,
0A,
E3,
FE,
FE,
04,
10,
FF,
3A,
28,
17,
10,
06,
0E,
FB,
FC,
09,
08,
0F,
0C,
00,
17,
16,
0E,
FF,
0D,
06,
FD,
31,
19,
06,
FE,
FE,
FC,
E5,
22,
23,
02,
0C,
1B,
19,
1A,
0A,
15,
14,
FB,
FD,
10,
0B,
0B,
0E,
0C,
0D,
12,
12,
01,
13,
01,
02,
04,
01,
02,
00,
FB,
DB,
DA,
DB,
FD,
02,
02,
06,
08,
03,
0F,
13,
1A,
0D,
F1,
09,
34,
06,
FD,
06,
0F,
02,
0B,
FF,
FD,
02,
FD,
FD,
04,
17,
1D,
17,
0E,
11,
14,
16,
0C,
13,
19,
06,
0C,
08,
16,
F9,
F0,
03,
FF,
F9,
03,
FD,
00,
01,
03;
