memory_initialization_radix=16;
memory_initialization_vector=
00,
FF,
FD,
00,
FC,
02,
FE,
FE,
04,
00,
FD,
04,
0A,
09,
00,
FB,
02,
01,
FE,
02,
FD,
FF,
04,
00,
02,
FE,
03,
FF,
FD,
FF,
04,
00,
04,
05,
10,
0D,
11,
0B,
19,
0A,
06,
0A,
06,
F3,
EF,
F7,
1B,
1D,
14,
1A,
1B,
15,
01,
04,
FD,
02,
FC,
00,
05,
EC,
EC,
09,
13,
14,
10,
00,
05,
1B,
0B,
EB,
03,
08,
09,
17,
1B,
0E,
0D,
10,
24,
18,
FA,
FA,
FF,
02,
FF,
02,
F4,
EC,
1A,
09,
15,
0D,
0A,
0A,
07,
16,
0B,
FA,
F8,
F1,
F6,
F9,
13,
10,
FF,
33,
24,
2A,
0C,
F2,
12,
03,
FC,
FD,
F2,
FF,
02,
EC,
F0,
FC,
F1,
FC,
07,
0B,
16,
FE,
FE,
ED,
EC,
F8,
F5,
F5,
08,
14,
04,
1D,
35,
2C,
1E,
18,
02,
01,
04,
04,
F7,
E6,
F1,
01,
1C,
1A,
16,
1D,
18,
08,
FD,
EA,
EE,
F4,
E7,
E2,
EF,
00,
F6,
08,
2F,
2B,
24,
1D,
03,
F7,
01,
01,
08,
0B,
00,
12,
1F,
1C,
0B,
14,
15,
F6,
F2,
F8,
EF,
FC,
E6,
FD,
F8,
F1,
F9,
02,
0F,
3C,
1D,
17,
06,
FF,
1F,
09,
EC,
FF,
FC,
05,
1E,
18,
0B,
05,
FA,
ED,
E9,
FB,
FF,
05,
04,
00,
FC,
0E,
19,
FA,
02,
1C,
29,
18,
E3,
0D,
18,
01,
F0,
0F,
17,
10,
20,
16,
0C,
15,
F4,
E4,
E9,
F0,
F8,
FD,
FA,
F3,
FB,
0E,
FE,
00,
13,
30,
38,
0D,
17,
1D,
FF,
F6,
00,
FF,
0B,
09,
14,
13,
12,
13,
F2,
E4,
F4,
F8,
F5,
EE,
EF,
F8,
06,
0A,
00,
05,
1A,
39,
37,
F6,
12,
13,
FB,
EC,
07,
09,
06,
07,
16,
26,
1F,
08,
F2,
E9,
F5,
08,
F7,
EC,
F2,
FF,
FD,
06,
FD,
FE,
20,
20,
0F,
F4,
1B,
EC,
20,
04,
FE,
16,
15,
20,
29,
39,
23,
05,
03,
04,
0E,
0D,
05,
F9,
FB,
F7,
F7,
06,
02,
0D,
16,
17,
17,
05,
09,
0E,
1B,
1C,
FA,
12,
03,
1B,
2F,
28,
15,
06,
EE,
F8,
02,
14,
0D,
FC,
F6,
F5,
F3,
0B,
0C,
13,
0A,
07,
01,
03,
EA,
0A,
21,
08,
F2,
17,
00,
11,
15,
1A,
18,
0B,
FA,
FD,
FE,
0F,
13,
F8,
03,
00,
09,
10,
0B,
0D,
00,
F7,
E8,
E9,
09,
00,
01,
FB,
F6,
10,
07,
0C,
08,
0D,
1B,
1C,
07,
FE,
FD,
00,
0E,
13,
19,
12,
07,
0B,
11,
07,
E9,
F4,
DC,
F4,
05,
00,
E4,
FB,
F1,
F7,
07,
02,
09,
09,
18,
24,
0B,
FC,
F3,
FC,
03,
12,
19,
0F,
FF,
05,
0E,
08,
D7,
FF,
F1,
E7,
01,
F8,
E9,
EC,
EA,
F8,
01,
F6,
15,
0E,
15,
13,
0E,
FA,
EC,
FD,
0E,
14,
05,
08,
00,
06,
07,
00,
EF,
13,
DD,
D7,
FC,
F6,
07,
E2,
E2,
ED,
FA,
F0,
0B,
0D,
0D,
11,
FA,
FC,
F6,
00,
06,
07,
09,
00,
14,
03,
05,
04,
12,
0D,
FE,
D7,
1E,
F9,
05,
E6,
F1,
F8,
F8,
FE,
FB,
03,
0B,
F7,
09,
10,
0D,
FB,
FA,
FB,
F7,
FA,
05,
03,
F5,
01,
01,
EB,
18,
DE,
EF,
F3,
F5,
F5,
EB,
F3,
F9,
EE,
FD,
03,
FF,
07,
0C,
09,
0B,
F4,
E2,
EF,
F4,
00,
02,
04,
04,
07,
FF,
D1,
FB,
E1,
00,
E4,
F8,
F3,
E0,
ED,
E5,
E2,
ED,
FC,
FB,
03,
0F,
11,
06,
00,
EC,
EE,
F1,
F9,
F9,
FB,
01,
FB,
FF,
04,
FD,
F9,
F6,
F8,
F1,
F1,
F1,
F8,
EB,
EB,
EE,
FB,
FD,
0B,
10,
0E,
05,
00,
FA,
09,
FB,
FC,
FD,
01,
04,
06,
11,
0D,
E7,
00,
F8,
F4,
F5,
F8,
F3,
E7,
E5,
E6,
EA,
F9,
05,
09,
09,
FB,
00,
01,
0C,
03,
F7,
FC,
F6,
06,
F7,
00,
0C,
FE,
0B,
FE,
02,
FF,
DA,
F6,
F4,
F6,
ED,
E7,
F5,
FB,
F6,
EE,
ED,
F1,
03,
02,
0B,
FD,
FE,
0A,
04,
0A,
00,
0E,
05,
05,
05,
FE,
01,
03,
04,
F1,
E7,
F3,
E6,
E7,
ED,
F9,
FA,
FE,
FE,
02,
05,
04,
13,
F3,
FC,
1C,
18,
F9,
F4,
F3,
DD,
E6,
F9,
FE,
FE,
02,
FA,
18,
FE,
EE,
EA,
EA,
ED,
FE,
12,
1B,
F5,
03,
13,
0F,
0D,
18,
20,
09,
09,
1E,
29,
27,
1C,
F9,
FA,
FE,
FE,
01,
01,
03,
FC,
E8,
ED,
F4,
10,
20,
FD,
FD,
14,
16,
06,
FC,
01,
10,
0E,
11,
17,
21,
23,
F9,
E8,
02,
03,
FE,
FD,
FF,
01,
FF,
0E,
21,
07,
FE,
FB,
16,
20,
18,
0F,
1D,
13,
01,
11,
18,
29,
1A,
23,
2A,
20,
17,
04,
FC,
FC,
FF;
