memory_initialization_radix=16;
memory_initialization_vector=
04,
FD,
04,
FE,
01,
FE,
FF,
00,
FF,
02,
FE,
01,
F9,
F4,
05,
05,
FD,
04,
FF,
FE,
FE,
FF,
01,
02,
FC,
02,
FE,
01,
FE,
FF,
FD,
FF,
FD,
FC,
F3,
F1,
EB,
F5,
EC,
DA,
D7,
DF,
F6,
DC,
EC,
E0,
DD,
EA,
E9,
F5,
FE,
F8,
00,
FF,
02,
04,
01,
FE,
00,
F4,
ED,
F6,
EB,
E8,
E2,
FB,
F4,
F3,
F7,
E4,
CC,
D2,
DC,
EE,
F0,
ED,
F5,
EF,
EB,
F0,
09,
0C,
FE,
FE,
02,
FF,
FF,
EE,
FC,
04,
F2,
F0,
EF,
E9,
FE,
09,
FD,
D7,
DA,
E7,
DD,
E8,
E9,
E1,
FE,
01,
F4,
F3,
0A,
06,
FA,
03,
03,
07,
0E,
20,
FB,
F0,
F8,
0F,
FD,
F9,
04,
08,
0B,
FB,
FD,
FF,
F2,
FC,
03,
FA,
07,
FB,
FB,
F0,
2A,
23,
1D,
00,
00,
FC,
FF,
1E,
F8,
EF,
F7,
0A,
FD,
00,
04,
18,
15,
09,
07,
01,
0A,
09,
06,
05,
09,
FB,
F2,
F5,
F5,
0B,
28,
02,
FE,
0F,
07,
08,
FB,
FA,
FC,
00,
08,
1A,
0F,
06,
0E,
13,
16,
12,
12,
13,
0A,
12,
0D,
FF,
00,
02,
04,
05,
33,
0A,
FF,
22,
F4,
09,
11,
13,
12,
03,
1C,
05,
06,
0C,
13,
19,
11,
13,
04,
FA,
FB,
FF,
0A,
FE,
08,
FB,
01,
1B,
29,
06,
E2,
04,
EE,
05,
0C,
0C,
0C,
FD,
03,
01,
08,
0A,
07,
0F,
0C,
0B,
09,
FD,
0B,
05,
00,
06,
07,
02,
FF,
2F,
0B,
01,
FD,
F4,
03,
0E,
F8,
16,
0D,
F6,
04,
09,
04,
07,
09,
08,
08,
05,
05,
02,
08,
0B,
0D,
0E,
0B,
FF,
D4,
04,
15,
03,
FD,
F4,
E4,
1B,
FD,
16,
15,
03,
04,
07,
01,
00,
04,
FE,
02,
EF,
F7,
00,
08,
09,
0A,
0A,
03,
F3,
CF,
03,
FC,
E9,
FF,
E2,
E4,
08,
03,
0B,
10,
06,
0D,
FD,
F9,
FE,
11,
02,
02,
FF,
01,
01,
03,
0C,
04,
F4,
F3,
F1,
E4,
01,
08,
E7,
FD,
EF,
F6,
00,
00,
12,
02,
FC,
02,
F3,
01,
FC,
08,
0B,
08,
05,
FC,
05,
08,
24,
10,
02,
EC,
F1,
E7,
FC,
16,
FE,
EE,
F7,
E4,
F3,
EA,
FE,
EF,
F9,
FC,
F2,
FD,
0F,
1B,
20,
12,
07,
03,
0E,
13,
12,
0C,
06,
F5,
ED,
F7,
04,
20,
10,
FB,
FD,
DC,
07,
F9,
F0,
FC,
FD,
F2,
EB,
F8,
06,
1C,
1B,
18,
11,
03,
0D,
03,
0A,
05,
03,
F4,
F0,
FC,
08,
1E,
F8,
F4,
0B,
F1,
15,
12,
05,
05,
EF,
F1,
EE,
F3,
FA,
0A,
10,
0A,
11,
09,
09,
03,
09,
06,
01,
00,
FC,
FE,
F7,
27,
17,
F5,
0C,
0E,
1D,
1C,
FC,
F9,
E8,
E5,
E9,
EA,
E6,
05,
07,
FF,
09,
02,
0F,
13,
0F,
04,
FC,
00,
09,
09,
07,
2A,
1A,
FE,
0D,
0D,
1A,
18,
03,
05,
FB,
F6,
E9,
D4,
DA,
EA,
FD,
F8,
0D,
09,
15,
0D,
08,
F9,
04,
F4,
FD,
F4,
EF,
FB,
FD,
EE,
02,
15,
21,
22,
14,
18,
07,
FD,
EA,
E6,
F4,
EB,
F6,
04,
15,
19,
09,
FD,
05,
04,
0B,
FF,
01,
F8,
ED,
F3,
F8,
F5,
EB,
FA,
1B,
16,
1E,
08,
F6,
F7,
F1,
02,
F9,
E9,
F7,
FC,
09,
0D,
0B,
0D,
0D,
01,
0C,
00,
02,
FD,
ED,
0E,
EE,
FC,
F7,
F6,
18,
02,
13,
09,
FA,
FB,
F2,
EA,
E7,
DD,
FF,
FB,
FE,
08,
06,
06,
01,
10,
05,
FB,
12,
0B,
00,
F9,
F6,
EF,
FF,
07,
FB,
FF,
FD,
FA,
FA,
01,
EF,
E4,
EA,
E4,
FA,
F6,
FF,
03,
0B,
FF,
05,
06,
03,
07,
17,
13,
0A,
E2,
FA,
ED,
FC,
15,
14,
F8,
E6,
F2,
FD,
FA,
F5,
FC,
FE,
FC,
FD,
01,
F7,
04,
07,
05,
01,
05,
02,
0E,
1C,
27,
02,
E1,
FB,
00,
04,
21,
30,
0E,
06,
FE,
05,
15,
0C,
11,
1B,
02,
08,
07,
FB,
05,
03,
0B,
03,
0C,
11,
10,
3A,
2C,
0A,
E9,
01,
00,
00,
FD,
1B,
0E,
F4,
10,
16,
0E,
03,
13,
1A,
08,
09,
0F,
02,
0E,
0A,
0F,
17,
1C,
1E,
2A,
38,
12,
04,
EE,
04,
04,
03,
13,
E3,
EF,
22,
1E,
18,
09,
0E,
36,
2B,
14,
22,
17,
1E,
2B,
2D,
2A,
28,
28,
13,
F2,
02,
EE,
0B,
F8,
02,
FE,
FF,
FD,
07,
29,
30,
22,
12,
05,
05,
19,
1C,
20,
16,
16,
FE,
14,
20,
13,
F3,
11,
11,
FA,
0A,
18,
F7,
FD,
03,
02,
03,
00,
02,
EE,
DD,
04,
0D,
01,
F8,
F3,
FF,
FC,
E2,
01,
0D,
FC,
E3,
F0,
FD,
00,
F2,
F1,
D8,
FD,
01,
01,
FD;
