memory_initialization_radix=16;
memory_initialization_vector=
03,
FE,
FE,
FE,
00,
01,
00,
FF,
02,
FE,
FE,
FD,
04,
FF,
03,
02,
FD,
03,
00,
FD,
00,
FE,
FD,
FD,
FE,
03,
00,
00,
03,
FC,
02,
03,
02,
FD,
FD,
FA,
FC,
FD,
FD,
0B,
07,
06,
00,
0F,
18,
10,
F5,
EC,
F4,
02,
FF,
00,
FE,
02,
FC,
03,
02,
FD,
FD,
1D,
19,
FF,
FA,
FC,
E4,
E8,
FF,
03,
00,
EA,
D7,
D8,
EB,
DF,
E1,
E6,
DD,
E3,
EA,
F1,
01,
05,
01,
00,
FD,
03,
02,
1D,
09,
EC,
EA,
E7,
EC,
F3,
F1,
E9,
E2,
E4,
E8,
FA,
F3,
FD,
E8,
E9,
FF,
F1,
E9,
F1,
02,
14,
10,
FC,
FC,
01,
FD,
06,
EF,
DF,
D6,
CF,
CC,
EC,
E1,
E4,
E4,
E3,
EE,
FD,
E6,
FA,
FA,
EA,
F2,
E4,
E9,
ED,
E9,
F6,
1D,
FF,
00,
FF,
F9,
FD,
F0,
ED,
ED,
E0,
EB,
F2,
EA,
F2,
E2,
FA,
EB,
E3,
DC,
E9,
EB,
E7,
EA,
EA,
E9,
CF,
CE,
E8,
0D,
F5,
FD,
ED,
0E,
22,
12,
18,
06,
F4,
01,
01,
00,
FA,
FC,
08,
00,
01,
F9,
FC,
FF,
F0,
F1,
19,
12,
F5,
D6,
E1,
F5,
04,
03,
07,
26,
33,
17,
FD,
07,
04,
10,
10,
0C,
08,
12,
19,
09,
12,
0F,
10,
0A,
FE,
FB,
09,
1A,
19,
F4,
F7,
E0,
02,
23,
18,
0B,
13,
FE,
06,
10,
0E,
1A,
10,
1E,
17,
23,
12,
12,
1B,
27,
1B,
1B,
04,
0A,
08,
12,
1C,
0E,
EE,
F2,
00,
0A,
0E,
01,
18,
05,
0F,
04,
04,
FE,
0A,
1E,
1A,
23,
20,
23,
14,
23,
20,
11,
03,
0D,
03,
07,
13,
27,
11,
FB,
18,
0C,
0C,
20,
03,
01,
0D,
0C,
06,
01,
07,
08,
13,
12,
2A,
28,
1F,
2E,
17,
0E,
FB,
07,
03,
07,
0C,
11,
13,
0F,
0B,
11,
23,
16,
13,
F1,
F3,
0C,
08,
00,
F9,
01,
17,
0E,
21,
19,
15,
0A,
05,
06,
FF,
06,
FA,
FF,
0B,
10,
0D,
12,
F2,
03,
0E,
07,
04,
FB,
F1,
FE,
F5,
F1,
F3,
F5,
FC,
03,
09,
05,
07,
F1,
F9,
0E,
0A,
03,
EF,
FC,
05,
FD,
05,
02,
01,
FB,
02,
05,
07,
FB,
F4,
F8,
FC,
F4,
F5,
F8,
FD,
09,
FD,
F8,
F3,
E4,
E7,
00,
FE,
F3,
FC,
00,
00,
06,
0C,
F8,
11,
F8,
05,
1A,
02,
FE,
05,
08,
05,
FF,
FB,
FA,
03,
FD,
FF,
F7,
F0,
D9,
EF,
0B,
06,
FD,
FD,
FF,
04,
1C,
0D,
0E,
12,
FE,
F8,
FA,
FB,
0A,
12,
0A,
0C,
FC,
F7,
F3,
F7,
EE,
F4,
EE,
FB,
DE,
F8,
08,
05,
0B,
F8,
02,
11,
29,
FE,
FC,
17,
08,
F2,
EF,
EE,
0E,
0E,
0B,
0D,
06,
FE,
00,
FA,
EE,
E5,
F2,
F6,
FC,
0F,
00,
04,
11,
FE,
0C,
0D,
0D,
EF,
1B,
29,
FE,
EF,
E3,
FC,
10,
0A,
0C,
07,
07,
03,
00,
F9,
EB,
E1,
F3,
02,
00,
11,
F4,
F9,
00,
FE,
04,
03,
18,
01,
12,
23,
1E,
F8,
E4,
E0,
00,
0F,
0A,
05,
0C,
FD,
F2,
EE,
E3,
E3,
F9,
05,
03,
08,
FD,
F0,
F2,
FD,
13,
06,
02,
EB,
15,
F3,
FA,
25,
F8,
DE,
0A,
0A,
FD,
FC,
05,
F0,
E7,
E5,
FF,
F7,
04,
00,
FE,
0A,
FD,
02,
05,
0E,
20,
06,
F6,
E7,
06,
EF,
FE,
18,
FD,
E5,
0E,
1A,
01,
FC,
09,
E9,
F1,
F4,
01,
FD,
EF,
ED,
F4,
F7,
F0,
04,
00,
09,
10,
01,
FA,
01,
FB,
FF,
FD,
04,
04,
FB,
07,
12,
14,
08,
FB,
F2,
F0,
FB,
F5,
EC,
E4,
EA,
F4,
F6,
F5,
FB,
DC,
E0,
F2,
EC,
F9,
0C,
27,
07,
01,
FD,
FA,
FA,
ED,
F9,
25,
16,
0E,
07,
FD,
ED,
F6,
F2,
F2,
EF,
F3,
F9,
F9,
EA,
D6,
DC,
F1,
02,
0F,
0E,
FB,
00,
04,
FE,
DD,
EB,
FD,
03,
10,
11,
05,
FB,
FF,
02,
FF,
04,
FE,
F9,
02,
01,
F1,
E5,
DD,
D7,
F0,
04,
25,
0A,
DE,
04,
00,
FE,
08,
FE,
26,
2F,
0A,
06,
FA,
F0,
FA,
FA,
11,
10,
04,
06,
05,
FC,
F6,
F8,
01,
DE,
E5,
FD,
1B,
ED,
FC,
FE,
FF,
FC,
F0,
21,
10,
FF,
F5,
07,
FD,
EE,
08,
15,
03,
04,
14,
16,
1E,
13,
F0,
FF,
F7,
01,
FB,
04,
11,
07,
08,
01,
00,
02,
FC,
0A,
E7,
E4,
EC,
08,
1F,
28,
13,
13,
1A,
36,
2C,
09,
18,
12,
18,
24,
19,
18,
29,
0D,
16,
05,
FD,
02,
FC,
FE,
04,
FC,
11,
23,
16,
12,
1F,
1E,
1F,
11,
14,
26,
2E,
08,
13,
28,
20,
22,
10,
1A,
1F,
20,
00,
00,
01,
FF;
