memory_initialization_radix=16;
memory_initialization_vector=
03,
03,
00,
02,
00,
FE,
FF,
02,
02,
02,
FE,
FE,
0A,
00,
FE,
FF,
FF,
FD,
FF,
FE,
FD,
00,
FC,
FF,
01,
00,
FE,
FE,
02,
FF,
FF,
03,
02,
03,
04,
01,
11,
07,
18,
06,
FC,
0D,
23,
FE,
E8,
EE,
19,
17,
18,
14,
0E,
0E,
FF,
00,
02,
04,
02,
04,
03,
FC,
FA,
05,
07,
05,
0C,
FE,
04,
1D,
1D,
30,
2B,
0F,
0E,
1E,
F6,
09,
10,
19,
1C,
13,
0F,
0C,
04,
02,
03,
FE,
24,
FB,
01,
07,
11,
11,
F4,
02,
F6,
EB,
EB,
FC,
02,
EC,
00,
FF,
FB,
01,
07,
06,
FB,
11,
1D,
FE,
0E,
03,
FD,
03,
23,
FF,
17,
26,
1E,
0B,
04,
FA,
F5,
F1,
00,
07,
F2,
E7,
F7,
E5,
E5,
FE,
F4,
FF,
01,
1B,
1F,
FA,
DC,
F8,
FE,
02,
0F,
E1,
02,
2F,
13,
02,
06,
FD,
F0,
E8,
04,
F5,
F5,
0B,
0D,
F6,
F0,
F4,
ED,
FF,
03,
23,
13,
E0,
D0,
F1,
01,
F9,
18,
0A,
0F,
0E,
0A,
F7,
F7,
01,
02,
08,
07,
FE,
FE,
FD,
FC,
F7,
F2,
EA,
FA,
08,
10,
09,
EE,
D4,
ED,
F5,
00,
04,
1B,
16,
08,
F5,
FA,
FB,
F0,
0A,
0B,
FF,
FC,
FB,
FF,
FA,
F6,
F8,
EE,
EB,
F4,
08,
08,
F4,
E3,
D9,
05,
F6,
FB,
0A,
1D,
03,
06,
09,
FD,
F9,
F7,
05,
07,
FE,
FF,
FE,
03,
02,
EA,
EE,
F3,
EA,
F3,
FD,
F2,
F8,
E6,
E8,
00,
FA,
06,
0B,
03,
F0,
1E,
00,
F7,
F5,
F0,
F1,
F1,
00,
04,
10,
16,
0D,
F3,
EA,
F5,
F1,
F0,
FB,
F9,
00,
E3,
FD,
02,
03,
09,
05,
06,
EA,
13,
FD,
F4,
EB,
E8,
E8,
DF,
F6,
00,
15,
17,
09,
EB,
F0,
F5,
F6,
ED,
FE,
02,
F4,
E6,
02,
FB,
11,
06,
14,
0C,
FA,
F8,
FF,
EE,
EF,
EA,
E4,
F3,
08,
15,
19,
17,
02,
F4,
F8,
FE,
00,
FA,
03,
03,
E7,
B7,
C3,
DE,
05,
02,
13,
12,
0A,
E6,
E1,
E9,
FA,
F1,
E6,
FF,
1F,
2F,
24,
0F,
0C,
0E,
F7,
12,
06,
06,
0D,
06,
DE,
D7,
D5,
D4,
13,
14,
0D,
25,
17,
EC,
F8,
FB,
F3,
EF,
F8,
17,
1C,
12,
03,
06,
0C,
12,
09,
1D,
0D,
12,
15,
F3,
EB,
D9,
D3,
CC,
EF,
FD,
08,
16,
12,
05,
FA,
FB,
F7,
FD,
0A,
17,
10,
05,
02,
0C,
0C,
19,
0C,
1A,
1D,
0E,
0D,
01,
F1,
DB,
DC,
CD,
F4,
FF,
08,
18,
02,
01,
F8,
06,
07,
F9,
0B,
17,
19,
06,
04,
0A,
10,
0B,
10,
14,
1A,
07,
0E,
12,
0A,
E4,
E2,
E7,
F9,
09,
13,
08,
FB,
02,
01,
08,
0A,
09,
0F,
10,
15,
FA,
06,
12,
10,
12,
0A,
0F,
15,
08,
05,
FA,
F8,
EA,
CE,
D1,
E2,
FD,
08,
0A,
FE,
08,
FB,
FE,
FC,
FA,
04,
0B,
FE,
ED,
06,
27,
16,
0F,
FD,
0C,
FF,
F7,
F4,
E9,
F6,
F0,
E4,
DC,
DE,
F5,
03,
09,
08,
0E,
F6,
EF,
EC,
E4,
F0,
DB,
D8,
F6,
11,
21,
0A,
FE,
F8,
F4,
F2,
DD,
EE,
E9,
F1,
E4,
EA,
0A,
1D,
01,
0C,
FF,
1A,
09,
F4,
EF,
EA,
DE,
DB,
CE,
E2,
F6,
16,
1F,
07,
FB,
EE,
F2,
DD,
D7,
CB,
C6,
C8,
E6,
FD,
FD,
1B,
FE,
F0,
FD,
08,
00,
E0,
F1,
E7,
CA,
C9,
CB,
E7,
0E,
0E,
1C,
0E,
07,
FC,
FA,
E5,
D8,
C6,
CC,
C7,
ED,
F6,
04,
04,
15,
FC,
FC,
F8,
F3,
DB,
E8,
E1,
DF,
D6,
E0,
F4,
11,
10,
0C,
01,
06,
F6,
FF,
E8,
E4,
E2,
E3,
D1,
F9,
FD,
FC,
03,
0D,
0B,
03,
F8,
EE,
F1,
DF,
E9,
EF,
EB,
04,
F9,
00,
06,
FE,
09,
05,
F4,
00,
13,
04,
FF,
FE,
F0,
FE,
0C,
1D,
FF,
04,
FD,
FF,
0A,
EB,
E1,
EE,
DB,
E2,
03,
06,
08,
14,
0A,
00,
FB,
F9,
FC,
FC,
11,
09,
13,
FD,
F3,
00,
0C,
1A,
04,
00,
04,
06,
FF,
EE,
ED,
DD,
D2,
D8,
00,
07,
17,
0D,
0D,
01,
F9,
F4,
01,
FF,
09,
0E,
0D,
0E,
0C,
0B,
0C,
12,
FE,
01,
04,
FF,
01,
EB,
E5,
F7,
F0,
F1,
FD,
FC,
0E,
09,
00,
00,
FB,
E7,
DE,
F3,
E7,
EC,
F4,
06,
04,
FC,
F8,
02,
FE,
03,
03,
FE,
FF,
F0,
ED,
E6,
E3,
F4,
FB,
F0,
E6,
E8,
EC,
E7,
F7,
EC,
DF,
E7,
E0,
DB,
DB,
DC,
F2,
03,
06,
FF,
00,
00,
FE,
01,
FF,
05,
18,
F7,
F5,
F5,
00,
FF,
F0,
F8,
06,
D6,
E8,
F2,
10,
10,
F8,
FE,
08,
FF,
05,
FC,
FE,
FF,
02;
