memory_initialization_radix=16;
memory_initialization_vector=
03,
F9,
02,
02,
0F,
12,
DA,
22,
C4,
17,
0D,
17,
CC,
03,
DF,
A1,
C8,
0A,
DD,
D0,
03,
17,
2E,
0E,
FA,
03,
0E,
E9,
CA,
07,
DD,
0D,
1D,
05,
ED,
FF,
C4,
EC,
17,
0E,
14,
E1,
E6,
3E,
B7,
E0,
1C,
17,
0F,
CD,
F5,
0E,
0B,
00,
CF,
0C,
14,
15,
22,
EE,
AF,
1A,
D6,
C5;
