memory_initialization_radix=16;
memory_initialization_vector=
FD,
FD,
03,
00,
FC,
FF,
FC,
FD,
FE,
FC,
02,
FF,
00,
FC,
FF,
FD,
04,
FC,
FC,
03,
FE,
FF,
03,
FC,
04,
03,
FF,
02,
FD,
03,
FC,
01,
FE,
FE,
F7,
FB,
FA,
FA,
F8,
EB,
F0,
F1,
01,
F8,
EF,
E8,
EF,
F9,
F2,
EC,
EC,
F0,
02,
04,
FE,
FF,
00,
FC,
FD,
00,
FB,
FD,
F8,
EE,
EF,
E2,
E3,
E3,
DB,
D5,
D2,
E6,
DD,
DE,
E9,
E6,
E8,
F7,
EE,
F0,
FA,
FF,
02,
01,
02,
FD,
1A,
FF,
F8,
F4,
ED,
F3,
E7,
D4,
D6,
E5,
E0,
DA,
E1,
EB,
DE,
E9,
FD,
0A,
0A,
01,
07,
0C,
00,
0D,
FD,
01,
FF,
0A,
28,
18,
FC,
F3,
EC,
EB,
E6,
E5,
F0,
01,
F6,
EC,
E4,
EA,
F9,
F7,
09,
16,
10,
08,
08,
07,
FF,
F6,
16,
F4,
FE,
02,
16,
13,
F7,
FF,
0A,
10,
F2,
F2,
F3,
01,
06,
F0,
EB,
EC,
F5,
FA,
F8,
06,
FE,
0C,
FD,
FF,
0E,
34,
F8,
EE,
FD,
18,
10,
04,
F3,
FF,
10,
0A,
FF,
F5,
F6,
F8,
FA,
F7,
F2,
00,
FF,
00,
FF,
FC,
09,
12,
FD,
09,
F5,
22,
18,
13,
FF,
23,
FB,
09,
11,
FF,
07,
03,
F6,
F9,
F7,
FD,
08,
08,
06,
02,
F6,
F4,
05,
13,
17,
0F,
02,
02,
04,
08,
07,
13,
F1,
EF,
0E,
21,
15,
FD,
0A,
10,
09,
09,
04,
06,
09,
16,
09,
F4,
E8,
F6,
10,
14,
0F,
13,
14,
FA,
F2,
13,
0E,
FA,
FF,
F8,
18,
16,
14,
09,
14,
12,
12,
0F,
10,
16,
0B,
04,
F7,
F2,
F3,
06,
01,
0B,
14,
1A,
19,
07,
01,
12,
1E,
17,
FE,
04,
08,
19,
22,
0C,
0B,
07,
0D,
06,
04,
03,
FA,
E8,
D5,
E1,
EE,
04,
0B,
10,
18,
0F,
17,
08,
EE,
F9,
08,
19,
00,
EC,
14,
1D,
1C,
0F,
08,
0A,
FC,
FD,
F7,
EF,
E1,
D5,
EE,
F9,
08,
1E,
19,
15,
1E,
0D,
0D,
F4,
EF,
FB,
04,
02,
00,
0C,
1A,
10,
1B,
19,
05,
F2,
E5,
E0,
E5,
DD,
E9,
F5,
08,
1B,
1B,
1D,
23,
1D,
19,
16,
07,
00,
E1,
E5,
E6,
F2,
11,
0A,
03,
0F,
17,
FF,
F6,
EF,
F7,
E7,
EC,
FB,
FC,
0C,
1C,
1E,
18,
20,
1D,
1B,
14,
15,
FE,
E7,
DD,
F2,
F1,
01,
FC,
11,
FF,
27,
FB,
FE,
EC,
F3,
F8,
FA,
00,
05,
16,
1F,
32,
1A,
14,
1C,
0D,
0A,
00,
EE,
E8,
E5,
E1,
F4,
EC,
FB,
F7,
0A,
11,
13,
F5,
E6,
E6,
EB,
ED,
F7,
FC,
0D,
18,
2B,
34,
22,
16,
0A,
FD,
FC,
F6,
E9,
F9,
F0,
D4,
DB,
12,
03,
07,
14,
12,
05,
0F,
EA,
F8,
F6,
F9,
02,
F7,
03,
1A,
31,
33,
18,
0D,
FF,
F8,
F8,
F0,
EF,
EC,
EF,
F7,
E7,
F9,
F7,
01,
18,
05,
09,
01,
E1,
DC,
01,
FE,
EB,
ED,
09,
13,
26,
1D,
F9,
F2,
F4,
E2,
F3,
E9,
F2,
EB,
EB,
E5,
EE,
F9,
EE,
EE,
09,
13,
0F,
EF,
DD,
E6,
E4,
E6,
E8,
EA,
F5,
EF,
12,
04,
F3,
E9,
EB,
EB,
F9,
F6,
FB,
F5,
DF,
D0,
FB,
FD,
00,
0D,
F9,
10,
04,
F8,
EC,
ED,
EE,
F0,
EE,
EE,
D6,
E3,
FC,
FE,
FD,
F7,
F7,
EF,
FB,
F3,
00,
FC,
E7,
D2,
F8,
F7,
09,
FE,
02,
09,
0F,
1B,
EF,
EF,
F8,
F6,
FB,
F0,
E4,
FB,
F9,
FC,
F5,
FB,
FF,
F5,
F8,
F1,
00,
FE,
F3,
DF,
EE,
FB,
07,
04,
12,
11,
11,
04,
F6,
FA,
01,
0B,
06,
0E,
01,
FE,
F7,
F9,
FC,
01,
F8,
F1,
EE,
F3,
01,
FE,
F1,
E2,
ED,
DD,
FA,
05,
11,
0A,
F3,
FF,
09,
05,
06,
0B,
04,
04,
07,
FA,
F5,
F4,
FB,
F6,
F4,
F6,
05,
FD,
F7,
F4,
F1,
E8,
FA,
EB,
FD,
03,
00,
24,
EE,
F1,
F6,
03,
11,
05,
FC,
FE,
01,
F6,
03,
FB,
06,
FE,
00,
0D,
F9,
FA,
F5,
F9,
07,
F8,
0A,
0C,
03,
FF,
03,
24,
11,
12,
FE,
19,
0D,
02,
EA,
F4,
FB,
E7,
F4,
FF,
01,
F8,
FE,
FC,
F4,
00,
FC,
F0,
FD,
E1,
F4,
F9,
03,
FF,
FE,
0E,
E9,
06,
33,
1A,
0F,
1C,
0F,
05,
F8,
FA,
F6,
02,
F1,
FB,
F0,
F7,
EC,
E5,
DB,
D9,
E6,
E0,
F3,
F1,
00,
FF,
02,
01,
F6,
13,
23,
2E,
2F,
23,
21,
1F,
09,
F4,
11,
1D,
09,
12,
1E,
04,
F0,
05,
1A,
0E,
0B,
0B,
03,
01,
FD,
01,
FC,
02,
FC,
01,
00,
FE,
FB,
FF,
F4,
F1,
FA,
F5,
FC,
0C,
13,
09,
18,
17,
0C,
0C,
18,
08,
04,
FD,
04,
FE,
01;
