memory_initialization_radix=16;
memory_initialization_vector=
02,
01,
01,
04,
04,
FE,
04,
FE,
FF,
FE,
00,
FC,
F7,
FC,
FE,
03,
FD,
FE,
01,
00,
FF,
04,
00,
01,
00,
FF,
FF,
02,
FE,
01,
03,
FE,
02,
FB,
ED,
F0,
F1,
F9,
F8,
FC,
F6,
F5,
13,
CE,
EA,
E7,
F1,
F5,
FC,
FD,
FF,
FC,
02,
FE,
02,
FF,
03,
01,
FF,
F1,
F3,
F8,
EF,
E6,
DA,
D2,
D4,
CF,
CE,
D8,
EB,
DE,
DA,
EF,
EB,
0F,
04,
00,
FC,
EA,
F6,
00,
04,
03,
FE,
02,
FC,
F8,
09,
F3,
E4,
F9,
EE,
F6,
04,
FD,
EF,
F3,
E5,
DE,
F0,
F9,
F8,
04,
18,
1D,
06,
09,
16,
09,
06,
04,
FD,
FA,
FA,
1A,
DF,
E7,
F6,
05,
F9,
08,
F4,
FD,
FB,
FA,
F3,
00,
F8,
0B,
1A,
12,
13,
0F,
16,
30,
30,
23,
16,
00,
04,
00,
FC,
0B,
DB,
F4,
F4,
F6,
FD,
07,
02,
01,
FD,
06,
F6,
FB,
FA,
06,
0F,
F5,
F0,
FA,
FD,
F6,
0C,
20,
17,
00,
02,
FA,
2D,
1B,
03,
1C,
0F,
07,
11,
FB,
05,
03,
03,
FB,
FA,
F0,
FA,
F9,
FF,
F9,
F7,
EF,
F5,
F0,
F5,
28,
12,
F6,
02,
EB,
26,
1F,
ED,
11,
1A,
17,
0B,
FF,
04,
0C,
04,
FF,
F9,
FF,
07,
04,
04,
04,
06,
07,
FE,
F0,
F9,
24,
FA,
02,
07,
04,
1E,
05,
EF,
0B,
1C,
0E,
10,
09,
09,
0F,
FC,
E5,
06,
12,
0E,
05,
03,
F6,
FE,
0D,
F0,
F9,
0F,
20,
F7,
02,
14,
10,
0D,
00,
0C,
17,
18,
09,
06,
03,
17,
16,
F8,
E4,
E2,
02,
0E,
13,
0A,
F7,
05,
07,
F0,
F3,
0F,
1A,
0A,
0B,
11,
10,
1C,
04,
0C,
1B,
14,
06,
06,
0F,
0D,
18,
F8,
D5,
CC,
EB,
09,
10,
0D,
F8,
FB,
0F,
01,
E1,
F8,
22,
18,
0C,
1A,
16,
1A,
EA,
EB,
13,
1F,
11,
09,
08,
0F,
0D,
F6,
DA,
CF,
E0,
FF,
16,
19,
11,
04,
05,
00,
FC,
E6,
F0,
0A,
F0,
08,
18,
22,
F7,
0D,
08,
1A,
07,
12,
09,
13,
0D,
FD,
E8,
D2,
D9,
F7,
0A,
12,
17,
13,
07,
0E,
0C,
FA,
F3,
11,
F1,
FC,
17,
17,
FA,
24,
0C,
02,
07,
06,
07,
12,
0C,
05,
E6,
D7,
CD,
E1,
0D,
04,
1A,
18,
0D,
16,
08,
06,
03,
FC,
F2,
05,
F5,
15,
05,
2D,
11,
04,
10,
06,
08,
13,
01,
FC,
F1,
D7,
CF,
E9,
0B,
15,
21,
1A,
0A,
17,
1A,
14,
02,
0F,
F9,
0A,
EE,
01,
13,
1E,
17,
0C,
12,
FC,
09,
1B,
0E,
06,
EF,
C4,
C0,
E8,
17,
26,
1C,
11,
08,
09,
06,
F2,
E9,
11,
01,
0F,
EC,
F6,
02,
22,
23,
19,
02,
09,
FA,
03,
0B,
06,
E3,
B8,
CF,
00,
24,
24,
18,
12,
0A,
FC,
F2,
EE,
DE,
FD,
1C,
04,
EB,
03,
06,
1E,
11,
0E,
FC,
FB,
FD,
0E,
01,
EF,
C1,
C2,
ED,
26,
32,
29,
02,
01,
F8,
FB,
E6,
FC,
04,
0B,
1E,
06,
F5,
F7,
02,
1B,
08,
09,
F8,
F8,
F8,
FE,
FC,
D8,
C0,
DC,
12,
39,
26,
13,
FD,
F9,
FB,
EA,
DF,
F1,
F5,
FC,
FC,
00,
0D,
0B,
0B,
14,
00,
0A,
01,
01,
E7,
E7,
EF,
D9,
CA,
F8,
27,
2B,
10,
0B,
01,
FD,
F7,
E9,
DF,
F8,
02,
03,
00,
FD,
07,
19,
0C,
09,
03,
02,
F0,
FA,
E4,
DF,
F2,
F2,
F2,
FE,
15,
19,
0F,
00,
09,
F0,
E9,
F1,
E8,
05,
11,
FC,
03,
FF,
08,
09,
05,
F8,
01,
FB,
E9,
E9,
E6,
F3,
FD,
FF,
FB,
FD,
0F,
16,
02,
02,
FC,
FA,
FA,
FC,
01,
2E,
11,
FD,
04,
00,
E7,
FA,
F5,
DF,
F7,
F3,
EC,
ED,
EA,
F3,
FD,
06,
08,
12,
15,
16,
0D,
07,
01,
F2,
F8,
02,
03,
2E,
18,
0B,
04,
00,
01,
E6,
01,
EE,
F4,
02,
F6,
F3,
F3,
FA,
FE,
11,
06,
1F,
1E,
18,
23,
FF,
02,
F9,
00,
F3,
F9,
1E,
0E,
FB,
03,
04,
02,
13,
11,
FB,
0D,
FC,
FA,
08,
0D,
FB,
EF,
FB,
FF,
00,
12,
12,
25,
15,
0E,
21,
1A,
13,
FE,
13,
FB,
03,
01,
FF,
FC,
ED,
15,
F9,
E9,
E2,
DA,
F3,
FF,
DC,
E8,
EA,
F1,
FB,
06,
08,
24,
21,
0C,
12,
2D,
28,
12,
F8,
06,
01,
FD,
FD,
00,
03,
FE,
FD,
EA,
F7,
06,
18,
20,
09,
FA,
FD,
FB,
0B,
1B,
19,
14,
0C,
2E,
1E,
24,
26,
F7,
0E,
FF,
04,
00,
00,
01,
00,
FE,
0F,
2F,
03,
F0,
FA,
2F,
37,
28,
08,
24,
15,
00,
10,
33,
34,
1F,
29,
30,
31,
22,
FC,
04,
FE,
02;
