memory_initialization_radix=16;
memory_initialization_vector=
04,
FD,
04,
03,
00,
04,
FE,
FE,
FC,
FE,
FC,
FD,
03,
05,
08,
01,
FF,
FC,
FF,
FD,
03,
03,
FE,
00,
03,
03,
01,
00,
FE,
01,
FC,
03,
01,
00,
00,
00,
FE,
FC,
FB,
E3,
ED,
F3,
00,
F3,
F0,
E6,
F4,
F8,
F1,
F6,
FC,
F4,
FD,
FD,
01,
02,
FE,
FE,
04,
02,
F8,
FD,
F9,
F8,
F0,
F1,
EB,
FD,
F0,
FC,
0B,
12,
24,
10,
FA,
00,
00,
E8,
FB,
F5,
00,
EE,
01,
03,
FD,
FF,
0B,
E0,
DA,
F5,
F7,
E0,
D4,
DA,
F1,
EE,
DC,
E7,
0A,
15,
18,
16,
00,
F0,
E5,
D2,
EA,
FC,
04,
16,
F6,
00,
FE,
02,
18,
F2,
E9,
E9,
E4,
F5,
E5,
E4,
F5,
EB,
F6,
00,
FF,
17,
1F,
19,
15,
0A,
00,
F3,
F9,
E0,
EC,
E8,
E2,
E8,
FF,
00,
08,
EC,
E0,
FE,
FB,
F1,
FE,
FD,
F7,
EC,
EF,
E9,
F9,
0B,
10,
10,
24,
19,
03,
FE,
05,
09,
F4,
FB,
DF,
EB,
FC,
14,
F3,
2A,
E6,
F9,
FC,
F7,
FC,
06,
03,
F2,
F5,
FD,
F1,
F3,
07,
26,
28,
18,
0A,
07,
EC,
EE,
F3,
F4,
F5,
12,
03,
20,
06,
28,
F8,
FE,
0A,
F4,
F7,
09,
09,
FC,
FC,
F9,
EB,
E9,
07,
1F,
2D,
38,
1F,
09,
F0,
E5,
EA,
C9,
D1,
12,
F0,
13,
FB,
F4,
EB,
03,
FF,
F8,
06,
0B,
02,
FF,
FC,
E7,
E0,
E8,
0A,
29,
3C,
3A,
15,
F2,
F0,
D1,
BC,
D5,
DE,
FC,
03,
11,
F8,
F8,
F6,
0A,
0D,
00,
0F,
04,
F9,
F8,
F9,
E3,
CF,
EC,
11,
32,
44,
36,
15,
F8,
DB,
C9,
CC,
EB,
F7,
08,
05,
0F,
14,
0B,
FC,
02,
02,
F2,
06,
F8,
F5,
F7,
F4,
E1,
D9,
F2,
16,
3D,
3D,
37,
1D,
EA,
CE,
C8,
E4,
0E,
0E,
21,
04,
00,
14,
06,
E7,
FC,
EC,
EC,
FB,
F8,
FB,
09,
F9,
E0,
E5,
FB,
0F,
37,
30,
21,
16,
EE,
E3,
DE,
F7,
FF,
05,
0D,
06,
05,
FB,
ED,
E0,
FA,
F8,
F5,
F4,
F3,
04,
05,
05,
EC,
EE,
0A,
1E,
27,
1E,
FF,
EC,
E0,
E0,
E3,
F9,
EA,
02,
00,
05,
04,
1B,
F3,
EA,
F2,
F9,
EF,
08,
00,
F9,
04,
EE,
EC,
F9,
03,
14,
1F,
12,
E5,
EB,
E9,
EB,
E9,
EC,
00,
1B,
04,
FF,
0F,
21,
05,
1C,
03,
F5,
02,
0E,
0B,
FF,
FE,
F5,
ED,
F4,
08,
12,
1F,
06,
F3,
E8,
02,
F8,
EC,
FD,
1A,
11,
01,
02,
08,
20,
06,
18,
02,
FB,
06,
0F,
05,
F6,
F5,
E8,
F2,
F7,
14,
1C,
0C,
F3,
F3,
ED,
FA,
09,
11,
FA,
01,
25,
07,
04,
0B,
22,
F6,
00,
F5,
F1,
FF,
04,
00,
E3,
EB,
FD,
02,
09,
13,
0D,
FB,
ED,
FA,
F9,
15,
FC,
0D,
10,
02,
1C,
07,
FD,
12,
2C,
F4,
F9,
F2,
EE,
FD,
FC,
EA,
ED,
04,
05,
0A,
09,
00,
FA,
E8,
F7,
F9,
F5,
F9,
F2,
06,
14,
0A,
22,
03,
04,
25,
23,
10,
E8,
F4,
F2,
FA,
06,
FA,
FB,
FF,
01,
00,
02,
FF,
02,
FF,
01,
FE,
F9,
00,
FF,
FB,
07,
08,
16,
1D,
09,
1A,
F7,
1B,
F1,
F4,
F6,
FD,
03,
0A,
0A,
02,
03,
13,
04,
01,
07,
FE,
F4,
04,
02,
04,
F4,
FF,
0A,
16,
0D,
18,
00,
1E,
F7,
27,
FE,
E4,
00,
02,
FA,
04,
07,
FF,
05,
FE,
00,
F6,
F5,
FA,
00,
11,
09,
07,
FE,
0E,
0B,
06,
0B,
17,
0F,
10,
25,
32,
F3,
F2,
03,
02,
01,
02,
14,
01,
FF,
03,
FE,
F2,
01,
05,
FF,
04,
0A,
18,
0F,
0C,
12,
F9,
01,
FF,
0D,
12,
15,
FE,
FF,
17,
08,
05,
08,
05,
09,
03,
FC,
04,
FB,
F2,
FC,
02,
EE,
FF,
0A,
1E,
19,
F8,
FB,
02,
0C,
05,
03,
01,
FF,
DB,
E8,
01,
17,
1C,
04,
08,
06,
07,
0B,
11,
FE,
F3,
F6,
F5,
FE,
F9,
07,
12,
FD,
F6,
03,
08,
16,
FF,
01,
FD,
10,
F5,
0B,
13,
14,
0A,
00,
00,
FB,
FC,
F5,
02,
F7,
F8,
F1,
F4,
EF,
DD,
EF,
F8,
FE,
FA,
05,
10,
00,
02,
02,
00,
EB,
F3,
22,
10,
02,
FF,
17,
12,
FF,
09,
18,
0C,
04,
F6,
FC,
FE,
DD,
BF,
CF,
CB,
DE,
E7,
EC,
FF,
01,
01,
FE,
FE,
01,
F2,
DF,
DF,
EA,
FE,
0B,
06,
F9,
EE,
E8,
F2,
F8,
02,
05,
FB,
F8,
E7,
D6,
D9,
F8,
09,
17,
09,
FE,
04,
01,
FC,
01,
FC,
15,
1D,
02,
FD,
01,
FB,
FA,
F0,
00,
11,
DC,
FB,
0B,
15,
FC,
F2,
F9,
F5,
F4,
09,
FD,
FE,
02,
FC;
