memory_initialization_radix=16;
memory_initialization_vector=
00,
FC,
04,
FF,
FF,
02,
FE,
FF,
FD,
FF,
01,
FE,
0C,
03,
FA,
02,
02,
FD,
FE,
00,
04,
FE,
00,
00,
00,
01,
01,
FE,
04,
03,
02,
00,
FE,
03,
0F,
0A,
11,
0C,
1D,
2B,
22,
24,
F7,
F0,
13,
29,
1A,
13,
18,
1B,
18,
14,
FC,
01,
00,
FC,
FD,
03,
06,
FC,
05,
0A,
12,
21,
0F,
FC,
05,
18,
08,
F0,
FE,
F2,
F8,
0A,
12,
FD,
FC,
10,
1C,
13,
F7,
F8,
01,
FD,
FF,
04,
E7,
02,
1E,
FC,
07,
04,
FE,
13,
08,
0E,
03,
0E,
0B,
01,
03,
FF,
00,
04,
05,
24,
20,
38,
14,
F9,
12,
FE,
01,
F6,
E3,
E2,
F9,
E7,
E9,
FB,
F2,
08,
09,
06,
05,
02,
0B,
0A,
0C,
0E,
06,
0C,
13,
14,
11,
29,
2E,
29,
24,
1E,
FC,
FF,
F2,
FF,
FB,
D0,
EA,
FB,
03,
FF,
11,
0F,
0E,
0A,
19,
01,
0C,
12,
FB,
FC,
0A,
09,
03,
FE,
1B,
28,
23,
1A,
00,
F3,
F8,
EE,
F4,
03,
F9,
05,
03,
FB,
FE,
01,
05,
FA,
00,
03,
02,
FC,
F6,
FF,
F8,
F4,
04,
0C,
05,
1F,
1C,
18,
FE,
E5,
F3,
E5,
EF,
17,
FA,
05,
11,
08,
08,
07,
FC,
FE,
F8,
FE,
FD,
03,
FE,
FB,
F6,
FD,
05,
07,
04,
12,
20,
1B,
22,
F0,
00,
F9,
F9,
02,
06,
08,
04,
11,
04,
05,
0A,
09,
00,
F9,
FF,
FB,
FA,
F4,
04,
01,
F3,
06,
13,
1E,
22,
0C,
FB,
E3,
FA,
EF,
E5,
FA,
FC,
06,
0B,
0A,
FE,
0C,
0A,
0E,
05,
F8,
FA,
F3,
FA,
F7,
02,
00,
EE,
03,
23,
26,
14,
E4,
FB,
F0,
F7,
EC,
F3,
F5,
FC,
07,
10,
0F,
0F,
06,
13,
08,
05,
00,
F6,
F8,
F8,
F8,
F7,
FC,
F0,
0B,
2A,
08,
06,
E4,
FC,
0B,
DD,
EC,
EE,
FC,
0A,
10,
0C,
16,
0B,
06,
0C,
05,
00,
F9,
01,
F8,
F9,
FA,
E6,
F7,
EF,
08,
28,
20,
24,
E7,
F4,
F4,
ED,
FD,
EB,
F7,
0D,
15,
05,
0A,
0B,
0C,
0B,
0C,
F6,
F6,
FC,
FC,
FA,
FF,
FE,
04,
FF,
0A,
32,
07,
F5,
DF,
ED,
FD,
E8,
F5,
EC,
FE,
06,
12,
09,
13,
0D,
10,
18,
06,
F7,
06,
FF,
01,
00,
09,
05,
00,
11,
1D,
11,
FE,
EC,
FD,
0A,
F5,
E8,
E4,
F0,
10,
07,
0D,
0D,
0F,
12,
1A,
0F,
08,
00,
FD,
FB,
FF,
01,
FA,
FC,
01,
0D,
0F,
12,
16,
E8,
FD,
0A,
F4,
0A,
EF,
F6,
FE,
FB,
0F,
10,
15,
13,
11,
13,
00,
09,
01,
03,
F7,
F9,
FE,
F7,
03,
09,
19,
13,
2B,
F1,
EC,
F4,
F2,
FB,
FB,
E8,
F9,
0B,
08,
14,
0F,
12,
15,
14,
01,
09,
0D,
03,
FD,
F3,
F8,
FE,
02,
07,
19,
05,
33,
E8,
E9,
FF,
F3,
0C,
F3,
03,
10,
13,
08,
14,
1E,
18,
11,
06,
FC,
04,
02,
07,
FE,
FC,
07,
0C,
0E,
10,
18,
08,
FD,
E3,
EE,
E4,
E8,
FC,
F3,
10,
12,
1F,
0C,
07,
19,
0B,
05,
14,
06,
09,
06,
09,
F3,
F7,
F9,
05,
01,
00,
17,
15,
EE,
E0,
DE,
F6,
E4,
05,
FE,
08,
0A,
0A,
02,
09,
0C,
10,
07,
03,
02,
0B,
07,
02,
03,
04,
02,
0C,
07,
0F,
0F,
FB,
DA,
F7,
E2,
FC,
0B,
14,
F4,
02,
01,
F9,
03,
0D,
0E,
13,
0E,
0F,
09,
0C,
11,
03,
08,
00,
03,
03,
0E,
14,
09,
E5,
EE,
F0,
F0,
F2,
04,
01,
ED,
0A,
F5,
FB,
08,
05,
16,
00,
11,
0B,
0D,
12,
16,
02,
0F,
00,
03,
07,
07,
1A,
11,
E9,
0A,
20,
FD,
F9,
EE,
03,
0A,
FB,
F3,
F7,
FF,
FE,
06,
0C,
16,
14,
11,
0C,
10,
08,
0C,
06,
07,
FB,
10,
0D,
07,
F9,
02,
20,
02,
00,
01,
0E,
0D,
10,
FE,
EF,
F0,
09,
05,
0F,
07,
0C,
0B,
11,
08,
12,
04,
06,
0C,
06,
11,
0A,
06,
E7,
09,
FA,
FC,
FE,
03,
E5,
F7,
E8,
ED,
F4,
F4,
02,
0B,
04,
06,
14,
16,
0B,
09,
10,
F9,
09,
0D,
FA,
F2,
F9,
F3,
F2,
F7,
F3,
04,
04,
04,
06,
0A,
F3,
EC,
00,
F4,
E8,
F3,
FD,
FA,
EC,
FD,
F1,
04,
02,
FF,
07,
FC,
FB,
01,
14,
1A,
0B,
FB,
03,
FF,
FE,
FE,
04,
FF,
13,
07,
FC,
D9,
DC,
D0,
DC,
FB,
03,
DB,
C7,
DD,
DB,
E2,
EC,
E7,
E1,
DC,
D8,
EA,
E3,
FE,
03,
03,
FC,
FF,
03,
FE,
F0,
DB,
EC,
EC,
EA,
DE,
E6,
F8,
F4,
E2,
CC,
EE,
E5,
D4,
E4,
E6,
DE,
DD,
DF,
E9,
FF,
03,
FE,
01;
