memory_initialization_radix=16;
memory_initialization_vector=
FD,
00,
FF,
04,
FC,
FF,
FD,
04,
FF,
02,
00,
04,
F7,
FB,
02,
01,
03,
FE,
03,
00,
FD,
01,
02,
FF,
03,
FC,
01,
FD,
02,
01,
02,
02,
F9,
FC,
F5,
EE,
EF,
F3,
F0,
E5,
E3,
D6,
EB,
DD,
DB,
DA,
DD,
E3,
E5,
F9,
F5,
F8,
01,
FC,
FC,
01,
FF,
02,
FC,
F6,
F1,
F0,
EF,
E9,
E9,
E2,
D5,
CB,
FC,
FC,
E3,
D7,
EF,
F1,
D4,
D9,
E2,
E6,
E9,
DD,
E4,
F3,
FC,
FF,
03,
FD,
14,
F2,
F3,
FD,
E5,
DB,
F6,
E6,
01,
08,
0F,
F2,
05,
06,
06,
14,
0D,
0E,
24,
0A,
EF,
DF,
DF,
D4,
F9,
03,
02,
0C,
1E,
1E,
13,
FA,
EB,
FE,
FA,
F3,
03,
0C,
0A,
09,
FB,
04,
09,
00,
06,
04,
10,
1F,
1B,
FC,
1B,
0C,
FB,
F7,
02,
03,
F1,
02,
ED,
01,
FF,
05,
02,
08,
03,
03,
04,
F8,
F9,
FF,
09,
02,
05,
0B,
06,
09,
07,
19,
FE,
E0,
EC,
F9,
04,
12,
0F,
FB,
FA,
FC,
03,
05,
06,
0E,
00,
02,
FD,
F6,
F7,
FA,
02,
0C,
0B,
07,
14,
10,
09,
12,
11,
E5,
0E,
02,
02,
24,
11,
02,
F9,
FF,
01,
FF,
FF,
07,
F7,
FB,
F3,
F2,
F9,
F6,
00,
07,
04,
0F,
0D,
04,
02,
0B,
15,
F6,
0B,
09,
DE,
02,
0A,
07,
FF,
01,
F6,
04,
FF,
00,
02,
FC,
F7,
FE,
FB,
FE,
03,
0B,
16,
0B,
05,
0C,
11,
03,
07,
FD,
E4,
F8,
07,
16,
0D,
02,
FF,
F7,
FF,
08,
08,
0F,
FF,
F8,
FA,
F3,
F9,
FD,
04,
13,
13,
04,
06,
04,
0E,
02,
E6,
F2,
DD,
FE,
0A,
03,
F5,
19,
02,
F9,
EF,
FF,
09,
0A,
F8,
F8,
F3,
F7,
F2,
FA,
02,
07,
06,
0B,
03,
F2,
03,
F4,
E6,
FF,
F4,
07,
0A,
EF,
21,
15,
02,
F7,
F4,
F6,
06,
03,
02,
F2,
FC,
F3,
FE,
04,
FB,
0C,
0F,
FF,
F7,
E7,
E7,
EB,
CD,
F2,
FD,
03,
00,
0D,
11,
F1,
F8,
FC,
F8,
F9,
FE,
F7,
F8,
F5,
02,
01,
08,
0C,
03,
FE,
0D,
F7,
F6,
DF,
E7,
E2,
EC,
FF,
F6,
FF,
F0,
07,
0C,
ED,
00,
FE,
FC,
F6,
01,
F4,
F3,
F3,
F3,
F5,
F8,
FB,
FF,
05,
08,
FC,
F2,
EB,
D3,
D3,
E0,
F7,
FB,
F0,
FD,
0D,
0E,
09,
0B,
0A,
FE,
FB,
0B,
02,
F6,
F0,
FB,
F1,
F9,
01,
FE,
09,
02,
07,
FF,
F5,
E6,
E8,
F2,
FB,
F7,
FA,
FE,
08,
0C,
09,
15,
09,
10,
01,
09,
FC,
05,
01,
FA,
F4,
FB,
07,
04,
0D,
10,
12,
10,
05,
0D,
02,
E5,
E7,
12,
E8,
06,
07,
10,
07,
19,
07,
02,
09,
0A,
07,
0B,
01,
06,
06,
F6,
0A,
03,
0D,
21,
1C,
0F,
03,
F2,
F8,
00,
EC,
FE,
DF,
01,
0D,
0D,
07,
14,
01,
FC,
0B,
01,
01,
00,
FF,
03,
00,
02,
0A,
0A,
1F,
1B,
17,
FB,
FF,
F5,
F4,
F3,
DE,
F3,
DF,
E5,
08,
14,
0E,
05,
01,
F3,
F7,
F5,
F5,
FE,
0A,
FA,
02,
0A,
0B,
17,
1A,
0F,
0E,
07,
02,
EF,
DA,
D4,
EA,
F0,
01,
FF,
FD,
00,
18,
08,
09,
FD,
F4,
F5,
F2,
EE,
F5,
EF,
FE,
14,
10,
11,
0D,
0B,
0E,
FB,
F9,
D2,
BF,
CF,
F1,
FC,
01,
04,
EE,
F1,
07,
03,
FB,
F5,
F2,
EF,
F1,
E7,
E5,
EC,
F5,
0B,
05,
0C,
0C,
0B,
FF,
F8,
E9,
D0,
C5,
C5,
DE,
04,
08,
F6,
F8,
F7,
F9,
F3,
F7,
F7,
F8,
F4,
EE,
F1,
ED,
FB,
F8,
FE,
04,
08,
08,
02,
02,
F2,
E1,
DE,
C0,
D7,
F0,
E3,
01,
F4,
12,
FB,
F4,
F8,
F7,
F6,
F2,
F2,
E6,
FA,
01,
FC,
FB,
02,
09,
08,
09,
01,
11,
F1,
E3,
EC,
D3,
D8,
F3,
EE,
FB,
00,
FE,
19,
0E,
FF,
00,
05,
00,
ED,
F2,
00,
FF,
F6,
FD,
02,
0B,
FF,
04,
0A,
00,
E7,
CD,
C6,
DC,
EE,
F4,
0A,
03,
01,
03,
23,
24,
29,
18,
13,
0E,
02,
04,
0A,
0C,
FD,
0D,
0A,
02,
07,
09,
EB,
E4,
E7,
D4,
D6,
F2,
E7,
F9,
FC,
00,
03,
FD,
F8,
F1,
2A,
3D,
0C,
10,
23,
22,
20,
19,
26,
20,
0E,
08,
09,
FC,
06,
F4,
D9,
D4,
E6,
FF,
FB,
00,
FB,
00,
01,
FC,
FD,
00,
FA,
FF,
17,
1A,
16,
19,
18,
10,
05,
16,
0E,
11,
15,
14,
0A,
00,
EF,
E3,
EE,
F2,
F7,
08,
00,
FD,
01,
03,
FE,
02,
0F,
20,
F9,
F4,
F4,
08,
02,
F8,
FA,
0D,
E9,
F6,
F4,
0B,
FD,
E7,
F2,
04,
F5,
07,
02,
FE,
FF,
00;
