memory_initialization_radix=16;
memory_initialization_vector=
FE,
FC,
FC,
FD,
FD,
04,
FE,
FE,
03,
FF,
FC,
FE,
F8,
FF,
02,
FC,
02,
02,
00,
03,
03,
00,
01,
02,
FF,
FC,
02,
02,
FD,
FD,
04,
FF,
FA,
F6,
F0,
EA,
ED,
F0,
00,
0F,
0C,
05,
0D,
EE,
04,
F6,
E6,
E2,
DC,
E8,
ED,
EC,
00,
02,
FD,
FF,
FD,
03,
00,
E9,
E0,
FB,
EC,
ED,
03,
20,
0F,
0A,
12,
F5,
10,
01,
F7,
F9,
F4,
E7,
EA,
F3,
E5,
E5,
0A,
07,
00,
04,
02,
00,
FF,
EB,
0B,
EF,
EE,
00,
F2,
03,
FC,
FC,
FA,
04,
FF,
02,
09,
F7,
F3,
F5,
E4,
F3,
FB,
DF,
FC,
FF,
0F,
01,
FF,
F5,
E4,
ED,
F7,
F2,
09,
05,
F5,
FD,
00,
FF,
02,
0F,
11,
02,
07,
0C,
14,
0A,
0A,
02,
07,
17,
19,
08,
E9,
0F,
01,
FC,
E8,
03,
F6,
E9,
F0,
EC,
E6,
EE,
F9,
05,
FE,
06,
0E,
04,
09,
0A,
16,
07,
08,
06,
09,
05,
09,
11,
15,
11,
04,
FF,
0D,
02,
05,
E5,
E3,
ED,
EA,
EE,
F3,
01,
05,
FE,
FA,
F2,
FB,
FF,
FA,
F7,
F7,
F0,
03,
02,
01,
01,
20,
0C,
03,
E9,
15,
FB,
00,
E4,
EE,
EF,
EC,
EC,
F5,
0C,
04,
04,
F8,
E8,
F9,
04,
F7,
F1,
F3,
F2,
F5,
EE,
01,
1A,
16,
0C,
1D,
FE,
14,
03,
FB,
DB,
E6,
E6,
E8,
F2,
FE,
0C,
0A,
04,
F8,
F0,
F6,
00,
FF,
FC,
F5,
F8,
DD,
EF,
0B,
24,
FE,
FE,
FB,
EB,
FB,
01,
F4,
E6,
EB,
ED,
E1,
F3,
02,
07,
10,
05,
F3,
FC,
06,
09,
07,
F5,
FF,
F7,
DA,
E5,
1B,
03,
F5,
E0,
FB,
FA,
06,
19,
F8,
05,
04,
F6,
F2,
03,
00,
08,
10,
F6,
E9,
F2,
05,
15,
03,
F6,
F5,
F5,
E2,
F4,
0F,
16,
FE,
D1,
FF,
07,
0B,
03,
F3,
FF,
15,
04,
F6,
F9,
0B,
01,
02,
DE,
D4,
E2,
F0,
FF,
FA,
07,
F2,
FB,
EE,
F1,
EE,
17,
F9,
E8,
01,
FD,
04,
F9,
F5,
F9,
0B,
FD,
FA,
FD,
FF,
00,
F8,
EB,
E0,
D2,
E0,
FA,
EF,
F7,
F8,
FD,
09,
F7,
00,
F9,
04,
F3,
04,
FD,
FA,
07,
08,
00,
FD,
05,
07,
FC,
00,
FA,
03,
FA,
DC,
D8,
DC,
F8,
F6,
FB,
05,
12,
1C,
1F,
FE,
08,
13,
1B,
0A,
FD,
F3,
1B,
0F,
02,
06,
0A,
07,
0D,
07,
10,
0F,
FA,
EB,
E2,
F0,
F9,
00,
03,
13,
13,
1D,
18,
1D,
3C,
29,
17,
03,
F4,
01,
20,
1E,
0F,
FF,
0F,
17,
1F,
1E,
26,
20,
06,
ED,
F4,
0B,
01,
03,
0D,
07,
0F,
0F,
0F,
1E,
3F,
2F,
25,
FF,
F3,
01,
1E,
09,
0D,
0F,
0F,
11,
11,
1A,
27,
28,
0D,
FA,
06,
1B,
11,
0D,
0C,
15,
13,
08,
FB,
F6,
42,
37,
23,
FD,
F0,
10,
04,
07,
09,
0E,
0F,
15,
15,
21,
1D,
13,
07,
06,
0D,
0E,
0C,
0E,
FF,
01,
0F,
02,
F5,
F1,
24,
FF,
22,
FE,
FE,
FA,
FF,
0E,
02,
13,
19,
17,
1B,
1B,
19,
0C,
02,
14,
0D,
05,
F7,
05,
04,
FC,
04,
04,
FB,
0A,
19,
FA,
20,
00,
FE,
0F,
06,
05,
FF,
04,
12,
11,
16,
21,
15,
05,
06,
14,
13,
03,
FD,
11,
0E,
04,
04,
08,
04,
EB,
09,
26,
18,
03,
16,
1B,
10,
12,
06,
03,
02,
0E,
19,
1A,
12,
04,
02,
01,
12,
0F,
10,
1E,
0A,
FB,
05,
0E,
05,
FA,
0C,
0D,
F2,
FD,
10,
0B,
14,
17,
11,
FC,
06,
16,
1C,
0D,
00,
01,
04,
02,
0D,
0B,
07,
0A,
FB,
00,
0B,
1C,
16,
03,
09,
17,
05,
02,
00,
08,
20,
01,
08,
F9,
FB,
07,
14,
09,
02,
04,
FD,
F1,
FF,
06,
F6,
03,
FF,
FB,
09,
0D,
0D,
13,
0D,
FA,
04,
FC,
03,
1A,
13,
04,
00,
EB,
EF,
06,
FC,
FB,
FD,
01,
F6,
F1,
F2,
EF,
EE,
F9,
F7,
F1,
F7,
F5,
00,
EB,
FF,
0A,
02,
FE,
FD,
0A,
DE,
F0,
EC,
EC,
E1,
EA,
EC,
E7,
F5,
EA,
E5,
E3,
E5,
E1,
E0,
F6,
F2,
E5,
D8,
E9,
F7,
FB,
0C,
0A,
01,
01,
01,
14,
ED,
0F,
04,
FD,
EE,
CF,
B9,
C7,
DD,
CE,
E8,
DE,
E3,
E8,
D3,
E7,
FA,
F8,
F2,
F4,
1C,
F9,
07,
08,
FD,
FD,
FF,
FF,
02,
25,
1C,
19,
0E,
01,
D1,
DB,
06,
20,
16,
E6,
DB,
EA,
E1,
E4,
F1,
04,
E9,
E3,
04,
EB,
FE,
FD,
04,
FF,
03,
02,
01,
F2,
E5,
0A,
0E,
06,
01,
0C,
0E,
09,
F0,
F2,
EB,
04,
FF,
FC,
0E,
1A,
E2,
E0,
E4,
00,
00,
02,
FF;
