memory_initialization_radix=16;
memory_initialization_vector=
02,
FF,
02,
FE,
FF,
02,
FF,
FD,
02,
00,
02,
FE,
FE,
F9,
FD,
01,
00,
FF,
00,
02,
FC,
03,
FD,
FC,
04,
FF,
04,
01,
00,
FD,
02,
FE,
00,
FB,
F1,
F8,
FB,
07,
FB,
F9,
FC,
FF,
EC,
E6,
F5,
0C,
07,
F6,
FE,
FF,
FA,
FD,
FE,
02,
01,
00,
02,
02,
01,
FE,
FD,
FF,
FF,
F7,
F4,
E2,
F9,
18,
12,
EC,
E2,
D0,
D6,
EF,
F9,
F1,
F0,
F9,
FD,
F7,
F5,
F5,
04,
FD,
03,
03,
E0,
0A,
20,
1F,
15,
25,
27,
FE,
14,
22,
1E,
01,
13,
06,
05,
08,
07,
0D,
20,
0F,
F4,
E8,
F5,
14,
12,
00,
FE,
01,
EC,
0C,
00,
F7,
FF,
0D,
04,
06,
0E,
0F,
07,
03,
04,
06,
09,
01,
11,
0A,
0C,
0E,
0C,
10,
24,
20,
FB,
07,
FF,
02,
EF,
28,
18,
EE,
F3,
00,
F1,
F5,
10,
FF,
F8,
F1,
FD,
FC,
09,
01,
FF,
09,
17,
FD,
1B,
1D,
0E,
02,
0A,
14,
FC,
0F,
F7,
EF,
FC,
07,
F9,
F0,
E9,
F4,
F3,
E2,
EF,
F8,
04,
02,
FC,
F2,
F9,
FD,
F9,
EF,
FD,
02,
1A,
08,
16,
F4,
04,
0C,
E6,
EB,
10,
1C,
F2,
E4,
EC,
F0,
EF,
FC,
FB,
F8,
00,
F1,
F7,
02,
02,
08,
00,
F6,
F9,
FB,
0B,
08,
27,
F1,
0C,
EF,
01,
F4,
0F,
08,
EB,
F7,
F2,
0A,
05,
0C,
02,
05,
F8,
F2,
FA,
08,
07,
04,
18,
0E,
01,
00,
0D,
08,
0D,
08,
F4,
F4,
FE,
E1,
FE,
05,
F0,
F6,
03,
04,
07,
05,
05,
FC,
F2,
F2,
06,
01,
FF,
06,
FF,
FA,
06,
01,
0E,
10,
0B,
FD,
F8,
FA,
FA,
FC,
06,
02,
F6,
02,
06,
03,
FF,
01,
08,
09,
F9,
F6,
FD,
01,
FE,
03,
F1,
EC,
E8,
EC,
05,
11,
12,
EE,
F8,
F2,
DC,
ED,
01,
E8,
F4,
F7,
0E,
04,
03,
07,
13,
01,
FF,
02,
05,
FC,
FC,
F8,
E5,
E9,
D5,
D1,
D8,
FA,
0C,
F5,
F9,
F2,
EC,
F1,
F4,
EC,
03,
F8,
FF,
06,
18,
10,
15,
13,
07,
04,
F2,
FA,
FE,
FE,
F9,
F6,
D6,
D7,
D4,
E1,
02,
FA,
04,
FD,
E8,
01,
F1,
F2,
00,
02,
04,
06,
08,
03,
13,
0D,
0D,
FF,
FD,
0B,
0F,
0B,
FD,
FA,
F5,
07,
E9,
E7,
00,
FD,
08,
03,
E6,
F1,
F8,
FD,
FD,
01,
FE,
F4,
EF,
F7,
12,
0E,
14,
0C,
00,
0C,
0C,
04,
09,
FB,
03,
07,
00,
E3,
F8,
EC,
07,
0D,
15,
E3,
06,
F6,
E8,
ED,
F6,
EF,
ED,
FE,
13,
02,
06,
04,
09,
05,
0B,
05,
15,
17,
11,
23,
14,
F9,
13,
F1,
F4,
0C,
18,
FD,
05,
F8,
EA,
E8,
ED,
E3,
DC,
EE,
F5,
ED,
F1,
F4,
F7,
08,
0C,
13,
0E,
13,
1B,
23,
15,
17,
F2,
E8,
00,
0B,
1F,
0D,
1A,
11,
02,
0A,
F8,
EE,
DD,
DD,
D7,
E0,
E1,
E8,
06,
13,
0C,
17,
11,
1C,
0F,
16,
F5,
E4,
DA,
E5,
E5,
FF,
0E,
26,
24,
2B,
2A,
13,
02,
ED,
E6,
EE,
E6,
E9,
EA,
F7,
14,
04,
04,
09,
FD,
00,
FC,
0A,
EA,
E0,
DA,
E2,
F7,
E8,
0E,
33,
16,
33,
24,
0C,
0C,
06,
0A,
04,
FE,
FC,
08,
0A,
0B,
09,
0C,
00,
02,
0C,
02,
08,
E0,
DB,
EC,
E5,
00,
FD,
0C,
2C,
18,
1A,
15,
11,
19,
26,
15,
1A,
08,
0E,
0F,
0D,
09,
09,
0E,
FD,
08,
09,
03,
0D,
F4,
F8,
F3,
F7,
F9,
F3,
04,
0A,
F8,
04,
02,
12,
18,
0E,
08,
12,
12,
10,
0C,
09,
01,
01,
F9,
FF,
FA,
FC,
07,
0F,
F4,
FF,
09,
00,
F5,
07,
0F,
17,
08,
F9,
F1,
FA,
FE,
00,
09,
1A,
12,
14,
0C,
04,
01,
FE,
FD,
0B,
FD,
04,
0D,
17,
04,
F2,
0B,
02,
01,
FF,
22,
35,
2E,
26,
15,
06,
10,
13,
1B,
13,
09,
06,
07,
FD,
04,
04,
07,
02,
FE,
02,
FC,
05,
06,
F6,
0E,
03,
00,
00,
FB,
25,
1F,
0D,
0E,
05,
09,
15,
F6,
F7,
05,
FF,
18,
05,
07,
01,
08,
F0,
F2,
02,
0A,
00,
0B,
05,
FF,
FE,
01,
FD,
08,
08,
F7,
FB,
04,
F6,
F3,
FA,
F1,
E2,
EB,
F8,
EA,
F4,
E2,
D9,
F2,
EF,
FD,
05,
10,
1F,
12,
02,
05,
00,
04,
02,
00,
FA,
FE,
FB,
EC,
EB,
D8,
D0,
E5,
ED,
E8,
C8,
D7,
F8,
E4,
DE,
E5,
E4,
F5,
FA,
F1,
E2,
EA,
00,
02,
04,
FC,
03,
FE,
FF,
FD,
EF,
F6,
F9,
F9,
E5,
E7,
F4,
EC,
E3,
D8,
08,
F1,
E2,
E5,
D9,
E3,
EC,
EE,
FE,
04,
FE,
03,
02;
