memory_initialization_radix=16;
memory_initialization_vector=
FE,
03,
FF,
01,
03,
FC,
00,
FC,
FF,
02,
02,
03,
F3,
F4,
00,
03,
FE,
FD,
FC,
04,
FF,
FF,
FE,
02,
FD,
00,
00,
01,
FD,
00,
FF,
FF,
00,
FE,
FF,
FB,
F8,
F9,
E4,
E9,
E8,
E8,
10,
1F,
1E,
19,
EF,
F3,
EB,
ED,
F4,
EC,
02,
FF,
FE,
FC,
04,
FD,
02,
02,
EF,
EA,
00,
EF,
EF,
07,
04,
E7,
F7,
03,
06,
10,
01,
EF,
F3,
DD,
E7,
ED,
F3,
07,
0A,
ED,
00,
FD,
00,
FC,
1E,
02,
F6,
F4,
00,
F1,
EF,
F0,
EB,
F6,
FF,
0F,
F1,
D9,
D8,
E3,
D7,
D6,
DB,
E6,
F8,
08,
04,
0C,
0C,
03,
FD,
03,
16,
EF,
01,
1B,
1C,
0A,
16,
01,
0C,
07,
0A,
0A,
F1,
E9,
E3,
DB,
DE,
DC,
E1,
EA,
EC,
F1,
E4,
0E,
16,
ED,
FD,
04,
16,
0F,
31,
18,
0B,
08,
09,
00,
07,
05,
04,
03,
F8,
F2,
D8,
CB,
E1,
EE,
F3,
FD,
F8,
F6,
F5,
21,
01,
EB,
00,
EB,
ED,
26,
19,
E1,
0C,
0F,
12,
14,
0C,
0C,
11,
17,
0F,
FE,
08,
F2,
ED,
D7,
DE,
03,
E5,
ED,
E1,
31,
1E,
1A,
03,
E8,
04,
2C,
1D,
EB,
06,
FE,
08,
0A,
FF,
04,
1A,
1F,
19,
11,
0B,
ED,
EB,
E1,
E9,
F8,
E5,
EC,
EB,
07,
20,
17,
0F,
15,
F8,
02,
20,
FC,
FF,
05,
0A,
09,
1B,
0A,
13,
14,
19,
11,
0C,
04,
07,
FA,
E9,
E4,
E7,
D2,
E7,
07,
26,
F3,
05,
FD,
F9,
17,
F9,
0F,
05,
0C,
00,
09,
1B,
07,
0A,
09,
11,
21,
19,
21,
1A,
02,
E2,
D0,
D6,
DE,
FC,
0C,
11,
21,
FF,
07,
16,
08,
ED,
18,
13,
01,
FD,
01,
03,
FB,
EF,
F5,
0D,
19,
2B,
2D,
27,
11,
DC,
C9,
D9,
DD,
F7,
12,
0C,
2C,
06,
19,
10,
05,
FB,
0C,
02,
FD,
FC,
EE,
FD,
08,
F9,
F5,
0D,
15,
1F,
30,
34,
1E,
0A,
DD,
E1,
E1,
EC,
03,
08,
1E,
06,
0C,
0F,
05,
0F,
F8,
F0,
F5,
FB,
F6,
F4,
F1,
F1,
F7,
1A,
1F,
28,
34,
35,
14,
EF,
D7,
CF,
CA,
D9,
EB,
05,
22,
17,
07,
13,
FA,
FF,
F2,
F9,
FA,
04,
F0,
F5,
F5,
F8,
10,
15,
19,
18,
28,
21,
05,
DF,
CE,
DC,
F0,
F7,
FB,
18,
11,
F7,
FE,
16,
06,
ED,
D3,
F0,
F9,
EC,
EE,
ED,
F6,
01,
0D,
0D,
0F,
10,
19,
15,
FB,
DE,
C1,
D4,
02,
0A,
FF,
11,
13,
F8,
FD,
0A,
EA,
E1,
CB,
E4,
EB,
F9,
F0,
F2,
F7,
FB,
06,
04,
11,
1E,
18,
00,
E8,
E1,
CC,
D2,
E3,
09,
FA,
F7,
1B,
12,
FB,
1E,
EB,
FC,
D2,
CC,
F1,
FD,
FC,
00,
FA,
FA,
F7,
00,
03,
15,
02,
EF,
E2,
EE,
E2,
F3,
FD,
FB,
F6,
F8,
1B,
01,
04,
23,
0A,
F8,
E5,
D7,
DB,
F5,
EB,
03,
02,
07,
06,
07,
00,
FC,
F4,
EA,
E7,
F7,
EA,
E6,
F2,
F3,
25,
12,
2A,
19,
1D,
0E,
1D,
FB,
E6,
E0,
E2,
E9,
EA,
03,
08,
FE,
05,
FF,
00,
F6,
00,
F8,
F7,
FB,
FB,
F4,
F0,
EB,
1A,
14,
20,
05,
21,
F0,
13,
F9,
E6,
EB,
F5,
FC,
F9,
08,
FE,
0C,
0E,
03,
03,
0B,
01,
F9,
00,
03,
F8,
FE,
F3,
F8,
19,
1F,
1C,
00,
19,
F7,
06,
F5,
DA,
E9,
01,
FE,
F7,
04,
07,
12,
03,
08,
FD,
08,
01,
00,
FC,
0A,
0D,
02,
04,
0E,
03,
19,
0B,
09,
0E,
F0,
FE,
E8,
E0,
E1,
EC,
FA,
02,
10,
04,
05,
09,
09,
04,
03,
F1,
FC,
08,
04,
0A,
03,
0B,
FF,
06,
12,
FE,
0B,
0A,
05,
03,
EB,
01,
FE,
FA,
00,
04,
00,
FC,
FC,
0F,
12,
01,
F5,
F3,
FD,
F8,
06,
0E,
06,
09,
F9,
00,
FB,
04,
FC,
FC,
E9,
EE,
E4,
F2,
FB,
0C,
FB,
02,
F5,
04,
10,
0E,
03,
01,
F9,
00,
07,
03,
03,
12,
1C,
13,
0C,
FE,
05,
04,
03,
FE,
F8,
DF,
16,
24,
07,
01,
F6,
E2,
F5,
F1,
EB,
F4,
00,
00,
F1,
FC,
05,
08,
01,
13,
15,
17,
1A,
1B,
0D,
04,
00,
01,
0C,
F7,
07,
06,
F7,
02,
0C,
F5,
EA,
EB,
FC,
FC,
12,
FB,
FF,
06,
EE,
E6,
FA,
EE,
DC,
EA,
F1,
10,
0B,
FE,
00,
00,
FF,
07,
F7,
FC,
FE,
12,
14,
21,
22,
06,
FC,
04,
1F,
08,
17,
23,
1E,
07,
18,
13,
0A,
1F,
13,
01,
02,
02,
03,
00,
FE,
FD,
FC,
F3,
04,
06,
0A,
0D,
1B,
17,
12,
1D,
3E,
2B,
2E,
25,
26,
2A,
19,
1A,
1B,
02,
00,
02,
02,
00;
