memory_initialization_radix=16;
memory_initialization_vector=
FD,
FD,
03,
02,
FF,
FE,
FE,
FD,
FC,
FD,
01,
04,
04,
05,
FD,
FE,
04,
04,
00,
00,
03,
02,
FF,
03,
00,
00,
00,
04,
01,
FD,
FC,
FE,
FD,
01,
06,
0C,
0E,
05,
05,
11,
12,
0F,
F8,
09,
1F,
20,
11,
15,
0D,
08,
06,
07,
01,
03,
FF,
03,
02,
04,
02,
16,
16,
06,
0D,
0E,
1D,
26,
29,
27,
18,
F8,
FE,
F7,
F7,
FB,
0B,
F7,
FF,
1B,
09,
15,
12,
09,
00,
FD,
01,
FF,
E7,
13,
16,
F7,
FD,
FA,
07,
15,
10,
16,
11,
1B,
0E,
07,
10,
15,
20,
13,
05,
18,
18,
1D,
31,
18,
13,
FC,
03,
FE,
E3,
E3,
F6,
F1,
07,
06,
F7,
00,
FA,
08,
06,
F8,
05,
09,
0E,
11,
0E,
FD,
FC,
F1,
F5,
F9,
FA,
07,
1E,
1A,
FF,
02,
F9,
02,
F4,
D4,
F3,
05,
FC,
F2,
04,
09,
02,
01,
02,
05,
0A,
10,
07,
06,
07,
07,
FF,
EB,
F7,
15,
28,
18,
01,
0F,
07,
FD,
F0,
EC,
FC,
03,
FF,
03,
07,
00,
05,
FD,
09,
0B,
10,
08,
07,
02,
F9,
F9,
04,
F2,
F8,
0E,
FA,
0B,
00,
0D,
05,
F4,
00,
03,
FA,
FD,
0F,
05,
09,
09,
FC,
08,
06,
0F,
09,
03,
0A,
01,
F9,
FE,
06,
00,
FC,
06,
F3,
11,
0F,
08,
FF,
0B,
0E,
01,
FD,
02,
02,
09,
0C,
0A,
05,
07,
0A,
01,
10,
07,
00,
0A,
10,
FD,
02,
10,
03,
F8,
FF,
09,
F9,
F2,
0C,
0C,
05,
01,
01,
02,
01,
05,
0D,
00,
06,
03,
F8,
F1,
FC,
01,
FB,
0D,
0E,
F6,
00,
14,
15,
1F,
0D,
E8,
FE,
EE,
0B,
06,
FA,
0C,
10,
0D,
09,
03,
0D,
06,
01,
FB,
F9,
EB,
00,
02,
08,
06,
0A,
FF,
08,
19,
23,
0C,
16,
E7,
F1,
03,
D4,
14,
07,
FF,
0C,
0B,
FD,
FB,
F3,
01,
FB,
FD,
FB,
F2,
F9,
F9,
FF,
00,
F5,
02,
FA,
04,
35,
35,
1F,
04,
F8,
FD,
F1,
15,
00,
EE,
02,
04,
F9,
00,
FC,
0A,
03,
09,
FE,
EF,
F6,
01,
F8,
F4,
F3,
F7,
F2,
FE,
1D,
2C,
1C,
0E,
F3,
01,
ED,
22,
F5,
F8,
FE,
F8,
F6,
02,
FD,
12,
13,
0F,
F8,
EE,
EC,
F1,
F6,
F6,
F0,
F6,
09,
14,
14,
18,
20,
1C,
08,
F5,
E2,
09,
F2,
F9,
00,
02,
F4,
F5,
04,
15,
0D,
0D,
FB,
FB,
F0,
EA,
F3,
E2,
EF,
FF,
06,
07,
1A,
15,
28,
11,
05,
F7,
E0,
EC,
EE,
06,
03,
06,
FE,
FF,
02,
09,
0B,
04,
00,
FA,
EF,
EB,
EF,
F1,
02,
FB,
F5,
08,
37,
16,
FA,
1D,
ED,
FA,
EA,
F7,
F5,
03,
04,
03,
F7,
04,
0E,
0C,
0A,
01,
FE,
F7,
F0,
FA,
F2,
F6,
F7,
F5,
04,
11,
11,
16,
13,
1B,
FF,
F1,
F0,
FD,
FD,
03,
0E,
FA,
05,
0A,
11,
0B,
05,
FC,
EA,
EB,
EC,
F6,
EB,
01,
F7,
F8,
FC,
FC,
F9,
09,
FD,
17,
0F,
EE,
E5,
F8,
03,
07,
0B,
03,
FE,
09,
07,
F7,
F8,
EC,
E8,
F2,
FC,
FF,
F4,
F8,
FB,
F2,
01,
03,
F9,
07,
F3,
F4,
F7,
10,
F5,
EF,
06,
09,
04,
FC,
01,
FE,
00,
F6,
FF,
F9,
EF,
FA,
F7,
06,
06,
01,
03,
FE,
13,
0A,
F1,
00,
0B,
ED,
02,
11,
08,
02,
0D,
15,
03,
FE,
FF,
05,
06,
FE,
FC,
08,
FE,
07,
FE,
01,
FE,
FF,
05,
0A,
07,
07,
E5,
FE,
FC,
F2,
F6,
0E,
1A,
0C,
0C,
EE,
00,
05,
FE,
07,
00,
0E,
0C,
18,
11,
15,
08,
0D,
04,
06,
02,
03,
16,
11,
F1,
0E,
14,
01,
EF,
F2,
17,
1E,
FE,
F1,
04,
11,
07,
0D,
0C,
19,
20,
19,
12,
1A,
13,
0E,
0B,
06,
FA,
F9,
0B,
08,
FC,
FE,
E6,
05,
02,
FD,
1B,
1A,
15,
0C,
FF,
05,
0F,
0A,
0D,
13,
0B,
10,
0E,
0D,
13,
13,
10,
05,
07,
04,
20,
09,
FD,
03,
E5,
00,
03,
FF,
EB,
EF,
F0,
FD,
02,
FC,
10,
0F,
FE,
03,
15,
15,
16,
1A,
1E,
1C,
1F,
0F,
10,
00,
00,
00,
27,
09,
01,
FD,
FE,
00,
0F,
03,
E9,
EE,
18,
09,
00,
F9,
0E,
0B,
06,
0E,
13,
23,
21,
1C,
08,
16,
0F,
09,
16,
0D,
21,
03,
02,
01,
03,
02,
FE,
FF,
F3,
06,
FE,
ED,
E8,
E2,
FF,
17,
18,
0D,
F9,
F3,
04,
FB,
FD,
05,
03,
FD,
F2,
F4,
00,
FF,
FD,
00,
02,
03,
FF,
03,
FB,
F7,
F4,
F5,
F9,
D7,
F4,
FD,
05,
FE,
0A,
01,
F9,
DB,
E0,
EE,
E5,
DE,
EA,
E6,
03,
02,
04,
FD;
