memory_initialization_radix=16;
memory_initialization_vector=
FE,
01,
00,
01,
01,
01,
04,
FC,
04,
03,
03,
04,
FC,
FF,
03,
FE,
FC,
00,
FF,
04,
FF,
03,
03,
00,
01,
03,
FF,
FF,
02,
03,
03,
FD,
FE,
FD,
F5,
F6,
FB,
EF,
FA,
FD,
F6,
E7,
18,
EF,
E3,
E5,
E9,
E9,
E0,
E9,
E6,
F6,
03,
01,
FF,
FF,
03,
01,
FF,
EF,
EA,
04,
FA,
F4,
06,
15,
00,
FB,
12,
2A,
36,
27,
FF,
02,
02,
F3,
F8,
FA,
EA,
E9,
04,
08,
02,
FC,
04,
FD,
18,
F8,
13,
E5,
F5,
F5,
F3,
FD,
EC,
E6,
F7,
01,
06,
FF,
FF,
ED,
ED,
F9,
E4,
FC,
10,
EA,
F7,
01,
F8,
02,
FC,
FC,
FE,
DD,
F0,
FA,
EE,
EB,
ED,
F0,
FD,
FA,
07,
0B,
11,
FC,
FF,
02,
04,
F8,
FF,
FB,
EE,
07,
19,
17,
ED,
E5,
04,
FC,
F9,
05,
E6,
FD,
EB,
E0,
D4,
E2,
EF,
F0,
F9,
F3,
FC,
04,
FD,
0E,
18,
16,
21,
13,
0E,
0C,
17,
1B,
F2,
F8,
01,
EE,
FA,
F0,
E5,
EA,
E6,
E6,
D7,
D5,
E6,
EF,
F9,
F0,
FB,
04,
F6,
02,
0A,
13,
1B,
0B,
00,
FE,
01,
38,
31,
02,
FF,
DD,
07,
E5,
CA,
E6,
D7,
D8,
E3,
D5,
E5,
F5,
F5,
04,
0E,
04,
F6,
F9,
F8,
01,
0A,
18,
03,
ED,
F6,
19,
30,
0C,
D9,
EF,
0B,
F3,
E3,
E2,
E2,
DF,
E6,
DC,
E6,
04,
FF,
0A,
FE,
FE,
F7,
FD,
FC,
0B,
05,
10,
F7,
04,
24,
32,
1E,
0B,
FE,
E2,
F8,
09,
E5,
E8,
E3,
EA,
E5,
F7,
F7,
08,
00,
0A,
FD,
03,
02,
F6,
FD,
FB,
F7,
02,
FB,
F2,
24,
19,
07,
E0,
FC,
F4,
E7,
F6,
FD,
FB,
EE,
F2,
FB,
FE,
FD,
0D,
13,
FD,
FC,
FB,
EF,
EA,
EA,
F8,
F0,
FC,
E5,
F2,
F6,
01,
00,
E4,
FE,
E5,
E7,
E2,
EF,
07,
06,
02,
02,
FC,
04,
00,
0A,
F3,
E7,
F3,
F5,
DC,
EA,
FA,
F1,
DF,
CF,
D5,
D6,
10,
0B,
E3,
FB,
FB,
F6,
FE,
06,
01,
12,
0D,
FC,
06,
08,
08,
0C,
02,
F3,
FE,
04,
F4,
EF,
02,
00,
EF,
D8,
BA,
BC,
DB,
F2,
E4,
15,
FA,
E5,
04,
02,
FE,
11,
19,
0D,
0F,
09,
11,
1A,
0B,
0F,
1B,
14,
0B,
F7,
FA,
EF,
E1,
D0,
C7,
C5,
D8,
FD,
0E,
07,
F8,
E8,
0B,
09,
0F,
1F,
27,
0F,
0B,
04,
07,
00,
06,
16,
16,
1E,
0D,
FB,
E3,
E3,
D4,
CC,
D0,
E0,
F9,
38,
14,
05,
F7,
1C,
1C,
14,
18,
22,
18,
14,
16,
0E,
07,
02,
17,
1A,
10,
1F,
04,
ED,
EA,
DD,
D9,
DF,
CF,
EE,
1E,
1E,
2B,
01,
F4,
0C,
21,
08,
17,
20,
16,
0A,
03,
08,
07,
14,
0C,
15,
16,
12,
F8,
E7,
E1,
EC,
F7,
03,
F1,
F4,
2F,
53,
30,
FD,
ED,
0A,
15,
0C,
19,
1E,
0E,
10,
07,
12,
0B,
01,
03,
0C,
0D,
FD,
E6,
EA,
EA,
FB,
FE,
0A,
FA,
FE,
1A,
2D,
18,
EF,
EE,
FC,
1B,
15,
14,
1B,
07,
0E,
1C,
10,
01,
FF,
05,
0B,
FE,
F5,
EF,
EA,
00,
05,
FB,
0D,
0B,
25,
23,
1B,
2B,
0D,
E7,
F9,
0E,
06,
03,
FF,
ED,
EB,
01,
FE,
00,
F9,
0C,
04,
0A,
15,
13,
16,
16,
12,
0E,
09,
20,
2C,
4F,
38,
28,
FF,
F8,
01,
F3,
03,
FD,
FD,
F1,
F2,
F2,
F6,
06,
F4,
F3,
FC,
11,
25,
23,
25,
1A,
16,
14,
0F,
1C,
26,
33,
1C,
12,
0A,
FE,
E7,
EA,
13,
02,
F6,
F8,
07,
04,
FA,
F5,
F7,
FD,
06,
0B,
11,
23,
1E,
1A,
16,
1E,
1E,
1A,
29,
21,
E7,
FE,
13,
0C,
F0,
10,
16,
03,
FC,
FE,
F6,
00,
03,
F7,
F4,
F5,
FA,
F8,
0D,
13,
22,
1D,
21,
29,
0B,
0E,
28,
17,
D9,
FE,
FD,
FF,
16,
0D,
16,
05,
FD,
EC,
ED,
F4,
F5,
F2,
F9,
ED,
F3,
FF,
0F,
0D,
1F,
1B,
1D,
28,
22,
0D,
0B,
0C,
05,
FC,
01,
04,
0B,
EA,
05,
F7,
01,
F9,
F3,
04,
EA,
EF,
F2,
F2,
F3,
F8,
FE,
F1,
0E,
05,
02,
11,
16,
18,
1F,
19,
13,
FE,
FF,
FF,
14,
E7,
D6,
D3,
DB,
E9,
F7,
E7,
D6,
EE,
F5,
06,
FE,
F7,
F1,
E9,
F1,
F2,
0F,
16,
04,
32,
FB,
1A,
0F,
02,
04,
04,
02,
05,
18,
FB,
F2,
11,
0E,
EF,
F6,
09,
09,
F9,
17,
11,
0B,
FF,
F3,
E9,
07,
FC,
E1,
ED,
F7,
04,
00,
FF,
03,
03,
FD,
04,
02,
00,
11,
11,
08,
12,
11,
18,
0B,
0A,
18,
1E,
03,
F4,
0A,
0C,
05,
E2,
E4,
E3,
03,
01,
00,
FD;
