memory_initialization_radix=16;
memory_initialization_vector=
F2,
0F,
0A,
F3,
1F,
F4,
19,
F3,
19,
16,
17,
14,
EA,
FE,
C6,
E4,
CE,
EB,
1D,
06,
F4,
21,
B6,
0E,
26,
ED,
F8,
0F,
04,
FB,
05,
2B,
31,
1C,
A7,
F7,
17,
0E,
26,
18,
F9,
13,
EF,
18,
09,
D4,
E3,
E2,
12,
08,
FE,
FA,
BC,
2A,
0C,
10,
D6,
0B,
D2,
EE,
0B,
EC,
17,
06;
