memory_initialization_radix=16;
memory_initialization_vector=
02,
FD,
01,
FC,
FC,
02,
03,
00,
01,
03,
02,
01,
FC,
FF,
02,
00,
FD,
04,
00,
FE,
04,
03,
FD,
FE,
FC,
FF,
00,
FF,
03,
FE,
00,
02,
01,
F8,
F2,
F4,
ED,
F3,
E4,
D9,
D7,
DD,
0B,
E0,
E7,
DD,
E2,
E2,
E5,
E8,
E8,
EA,
04,
03,
FE,
FE,
FE,
FC,
FB,
DD,
E3,
F5,
F6,
ED,
EC,
E9,
D8,
D0,
FC,
F8,
ED,
F0,
05,
09,
F3,
EC,
F6,
F0,
E4,
EC,
01,
07,
FC,
FE,
FC,
FC,
02,
E0,
0A,
E8,
E5,
D7,
E9,
DF,
F3,
F4,
F9,
DD,
E5,
F6,
04,
0D,
13,
14,
0F,
0B,
F8,
E6,
F8,
F9,
F8,
FF,
FC,
FF,
FA,
11,
DE,
E5,
DB,
F0,
DF,
D8,
E4,
E0,
E9,
EE,
EF,
ED,
F3,
F2,
FF,
FA,
F9,
F5,
F7,
F2,
0E,
FE,
01,
FB,
FF,
02,
EE,
1F,
DA,
EE,
E5,
09,
FC,
EC,
E8,
E9,
E6,
E4,
E5,
EA,
F7,
F3,
04,
FE,
FE,
F4,
FD,
00,
F6,
F5,
0F,
F9,
FE,
FF,
09,
00,
E3,
F2,
E8,
F6,
F2,
06,
02,
E6,
ED,
EF,
FC,
FF,
02,
0B,
0F,
0B,
0E,
04,
04,
07,
08,
F0,
1C,
FA,
FF,
1B,
0E,
FA,
F3,
F4,
02,
FA,
FE,
FF,
00,
01,
09,
08,
0E,
00,
00,
02,
03,
0C,
0D,
0C,
02,
07,
F5,
F6,
05,
FC,
DF,
0A,
08,
02,
F5,
F1,
EF,
ED,
F1,
04,
06,
1A,
0C,
10,
0F,
0B,
0A,
0C,
08,
09,
11,
0D,
11,
0F,
04,
08,
FF,
0B,
0A,
09,
03,
02,
EB,
F4,
FF,
EF,
F5,
10,
1A,
28,
2E,
17,
16,
19,
14,
1D,
21,
0C,
09,
01,
1E,
02,
F3,
FA,
FA,
18,
12,
06,
EE,
0B,
E3,
FD,
0E,
FB,
04,
14,
19,
23,
1B,
09,
00,
05,
07,
06,
08,
0D,
06,
FA,
FE,
EA,
DA,
07,
0F,
1B,
0A,
E9,
10,
06,
E1,
01,
0B,
EB,
01,
FC,
F9,
F8,
E6,
E6,
E3,
F7,
F7,
FC,
F9,
FB,
F1,
F0,
FA,
DA,
CC,
EF,
F4,
EE,
FE,
07,
03,
F2,
E1,
F2,
F9,
DE,
EB,
D5,
D8,
C4,
CB,
D5,
F0,
06,
F6,
FE,
04,
02,
F9,
FA,
F0,
D4,
D5,
04,
0B,
08,
01,
F9,
06,
F3,
DC,
E4,
E3,
E8,
DF,
D8,
D6,
DD,
E8,
ED,
FD,
FB,
05,
17,
FE,
F8,
0F,
03,
E5,
E3,
FE,
0C,
1B,
10,
F8,
00,
07,
0F,
0C,
E1,
F0,
F3,
F2,
EC,
F0,
EC,
F1,
F8,
FF,
FC,
05,
0D,
FE,
04,
0D,
E9,
DF,
ED,
12,
FE,
24,
0E,
FE,
04,
E3,
0D,
28,
15,
14,
05,
0C,
06,
03,
07,
FC,
F8,
FE,
00,
01,
0D,
0C,
0C,
08,
F1,
EC,
FC,
0D,
F0,
2D,
0E,
FD,
04,
F5,
08,
2B,
22,
22,
18,
1E,
1B,
21,
16,
1E,
10,
01,
01,
02,
0C,
15,
12,
16,
05,
F3,
F9,
FB,
F8,
2E,
11,
FF,
03,
F3,
19,
17,
1C,
29,
26,
2A,
27,
28,
2B,
21,
0E,
05,
0F,
01,
10,
13,
02,
0D,
03,
F0,
E8,
E1,
FA,
08,
FD,
08,
00,
FC,
13,
0B,
1F,
1B,
19,
16,
0F,
15,
13,
06,
FE,
07,
0A,
14,
0C,
0D,
0D,
0B,
08,
FA,
F0,
DE,
FB,
11,
17,
00,
EF,
09,
F6,
02,
0A,
FD,
0C,
09,
F8,
F4,
F4,
EC,
EE,
01,
08,
11,
0F,
0A,
0A,
02,
FA,
F8,
FC,
02,
0E,
10,
03,
FF,
EA,
FA,
00,
05,
FC,
F6,
FC,
F9,
F4,
DE,
E2,
D7,
E9,
FE,
06,
16,
0E,
09,
0F,
FF,
FD,
F1,
0F,
24,
2C,
0B,
FB,
04,
F3,
06,
F0,
F8,
FE,
F1,
E8,
EC,
ED,
E3,
E0,
ED,
F1,
FC,
06,
11,
04,
05,
06,
03,
11,
FE,
05,
38,
2D,
E5,
02,
FF,
01,
03,
FA,
FC,
EE,
E8,
E1,
DB,
DE,
E7,
ED,
F5,
ED,
F5,
EE,
04,
F9,
F7,
F1,
0E,
0F,
F7,
FE,
34,
17,
F6,
00,
FD,
FE,
08,
0B,
01,
F9,
02,
F7,
E6,
DF,
ED,
FB,
F5,
F9,
03,
F5,
F3,
01,
F4,
FC,
01,
02,
05,
12,
45,
1B,
11,
FC,
FF,
FE,
04,
05,
05,
F0,
F8,
F7,
E8,
EB,
ED,
FE,
FB,
FF,
03,
F7,
F7,
0F,
0A,
0D,
11,
25,
20,
17,
3C,
18,
FF,
03,
03,
00,
0B,
E6,
1B,
2E,
07,
F5,
EF,
F6,
F5,
02,
0E,
04,
02,
FE,
08,
0C,
15,
18,
2A,
33,
34,
1C,
24,
03,
FE,
00,
FD,
FE,
FE,
02,
ED,
01,
10,
1C,
FC,
FD,
0B,
05,
07,
17,
20,
34,
33,
1B,
11,
32,
3E,
1F,
17,
05,
06,
FD,
FC,
FC,
01,
04,
00,
FC,
FF,
09,
11,
17,
17,
0E,
07,
00,
12,
17,
2E,
15,
0C,
09,
14,
0F,
F1,
FA,
03,
08,
02,
04,
02,
02;
