memory_initialization_radix=16;
memory_initialization_vector=
03,
03,
FF,
FC,
FE,
01,
00,
FC,
02,
FF,
FC,
03,
04,
FE,
FD,
FD,
FE,
01,
02,
00,
01,
03,
FE,
FD,
04,
FC,
FF,
FE,
FC,
03,
00,
00,
04,
04,
0D,
09,
0A,
05,
01,
0C,
1C,
0A,
EE,
FA,
FF,
FA,
0B,
10,
0D,
04,
0D,
07,
03,
02,
FE,
FF,
FE,
01,
03,
FC,
FF,
10,
16,
13,
2D,
38,
3A,
34,
2E,
12,
23,
2F,
15,
FB,
F1,
F3,
00,
0C,
0A,
05,
12,
06,
FE,
FD,
00,
04,
F4,
F4,
F2,
1C,
22,
1F,
19,
0D,
11,
2A,
1E,
1B,
0D,
05,
06,
00,
FC,
F9,
F9,
FC,
FD,
11,
0E,
F7,
04,
03,
FD,
FF,
10,
F4,
0F,
29,
2D,
23,
33,
1E,
1F,
19,
1A,
13,
07,
FC,
0A,
01,
FB,
07,
08,
FF,
01,
EA,
EE,
F1,
05,
23,
FC,
02,
15,
09,
28,
18,
21,
2C,
1E,
01,
F8,
E3,
FE,
FA,
F4,
F2,
FA,
F9,
F7,
07,
01,
0F,
06,
0B,
06,
0D,
0F,
1B,
04,
18,
FD,
22,
38,
2A,
28,
19,
FC,
03,
F1,
EC,
F8,
F8,
F3,
F0,
F0,
E8,
E9,
09,
FE,
FD,
04,
FD,
04,
14,
F6,
1B,
FB,
1A,
06,
1F,
41,
29,
15,
19,
F8,
F7,
00,
00,
06,
FE,
F0,
F1,
E2,
F4,
FE,
09,
09,
0C,
01,
F2,
F9,
04,
FF,
1D,
01,
10,
EE,
0C,
36,
16,
0D,
0C,
EE,
FE,
02,
07,
12,
06,
EC,
E7,
EA,
FE,
00,
0B,
0F,
F8,
03,
FD,
E4,
F6,
0E,
07,
01,
0D,
F6,
1B,
1D,
12,
07,
02,
05,
FB,
F0,
04,
05,
F0,
E5,
E7,
F6,
FF,
0A,
0B,
02,
00,
01,
03,
EA,
FF,
1B,
18,
FB,
05,
F6,
FD,
FF,
FF,
00,
01,
FF,
F5,
FB,
FC,
E8,
E8,
F7,
F3,
FF,
11,
19,
0C,
FE,
F7,
F8,
FB,
FC,
E9,
07,
1D,
FC,
03,
DC,
F9,
00,
F6,
F7,
08,
FE,
F7,
EC,
E0,
D4,
FE,
27,
01,
F0,
F9,
06,
01,
F6,
00,
05,
06,
15,
12,
07,
22,
FE,
F2,
E4,
F7,
EB,
DF,
DE,
F1,
E9,
E7,
DE,
DB,
FB,
2C,
2D,
06,
F9,
F6,
F7,
F7,
F8,
0D,
07,
0A,
32,
2E,
06,
22,
FF,
EE,
F4,
01,
DC,
E3,
CA,
CE,
E5,
DF,
DB,
F7,
13,
31,
21,
0F,
00,
FB,
FA,
00,
02,
0D,
02,
0B,
37,
2A,
27,
11,
FF,
EE,
E3,
0B,
E6,
EB,
E1,
D1,
E6,
E5,
EF,
11,
2E,
2D,
1F,
0D,
0A,
03,
FF,
06,
FD,
02,
04,
FE,
09,
08,
22,
11,
FD,
01,
FF,
05,
F1,
F6,
FB,
F0,
EF,
F6,
06,
26,
2B,
2E,
1E,
0B,
07,
01,
17,
15,
09,
0C,
01,
FA,
01,
00,
07,
1A,
01,
0B,
0A,
0B,
07,
FB,
17,
18,
0E,
1D,
1D,
30,
25,
1B,
18,
0B,
03,
0C,
1A,
1F,
04,
0A,
FB,
04,
0B,
0B,
16,
08,
FE,
07,
14,
0E,
16,
02,
1E,
1B,
0D,
16,
19,
20,
10,
0A,
00,
F7,
FD,
07,
0D,
09,
00,
0B,
02,
07,
17,
0E,
17,
E8,
00,
0B,
10,
14,
0D,
11,
06,
13,
FC,
12,
1A,
FF,
01,
02,
F6,
FA,
07,
07,
04,
FD,
00,
FF,
FC,
14,
1D,
2C,
11,
07,
FB,
EC,
FC,
09,
11,
09,
06,
16,
09,
1D,
14,
FD,
F0,
03,
FF,
01,
09,
04,
F8,
F3,
F4,
FA,
FF,
07,
FD,
08,
0E,
07,
FE,
EF,
FD,
12,
0D,
F8,
FE,
1E,
0E,
07,
00,
FE,
F5,
F8,
FD,
FF,
F8,
FA,
F4,
F8,
04,
FB,
EB,
FD,
EE,
E5,
FF,
F2,
F5,
0D,
2B,
1F,
03,
E6,
02,
14,
0F,
03,
FE,
06,
FC,
00,
03,
00,
02,
FA,
EC,
FD,
01,
E4,
F2,
11,
DE,
E3,
FB,
FD,
F5,
0B,
28,
01,
14,
05,
FB,
00,
01,
F8,
FF,
FF,
FD,
02,
FA,
FA,
06,
F1,
F1,
0B,
FC,
F5,
F9,
01,
EE,
E8,
F9,
FD,
FF,
04,
1C,
F8,
14,
F6,
F8,
01,
FC,
00,
FA,
FE,
08,
0F,
FD,
01,
07,
FA,
FA,
0A,
03,
F8,
FF,
F8,
D4,
EE,
FB,
FE,
02,
01,
06,
05,
F0,
E8,
FC,
F3,
F4,
FB,
FD,
0A,
01,
FC,
FD,
FB,
0E,
F9,
E0,
F2,
FA,
E2,
EB,
EB,
E4,
09,
05,
01,
FF,
FD,
01,
11,
05,
03,
09,
06,
01,
FF,
13,
02,
00,
F6,
EF,
03,
FD,
F4,
E0,
EE,
FB,
D6,
E0,
FE,
F4,
01,
08,
02,
03,
FF,
FE,
FE,
E8,
DB,
D9,
E3,
F1,
F1,
F6,
F0,
E9,
E2,
C7,
CF,
DD,
F9,
EF,
F4,
DB,
C8,
D2,
E4,
F1,
03,
FF,
FF,
FF,
01,
FF,
FE,
04,
0C,
F0,
F1,
EB,
F2,
F4,
E2,
ED,
EB,
F1,
F3,
FC,
04,
FC,
F3,
E9,
E3,
E8,
FC,
04,
02,
01,
FC;
