memory_initialization_radix=16;
memory_initialization_vector=
FD,
FF,
01,
FD,
FC,
04,
02,
02,
01,
03,
FE,
02,
FE,
0A,
10,
0E,
02,
FC,
FF,
FC,
FC,
00,
04,
FF,
00,
04,
02,
02,
FD,
FD,
FD,
00,
03,
01,
02,
FB,
F4,
F7,
EE,
F7,
F4,
E6,
00,
12,
03,
EE,
EE,
F3,
F2,
E6,
E5,
EC,
FE,
FE,
03,
04,
03,
FC,
FE,
02,
F9,
FA,
FC,
F8,
F5,
FB,
F8,
05,
04,
02,
FA,
11,
0F,
0E,
F6,
EF,
EF,
E2,
DC,
EA,
07,
06,
03,
00,
00,
00,
1E,
2A,
1B,
EF,
0B,
0F,
13,
17,
FF,
0F,
0A,
FC,
F4,
F6,
06,
09,
16,
1C,
09,
EA,
E0,
D0,
E7,
F5,
EA,
FD,
FF,
FC,
14,
09,
EF,
05,
19,
FA,
ED,
EC,
EF,
02,
01,
06,
02,
04,
FF,
F0,
02,
10,
0B,
00,
FE,
F4,
F1,
F4,
E2,
E7,
02,
FF,
16,
23,
FD,
21,
0F,
FC,
00,
07,
F9,
F7,
FC,
F4,
00,
0B,
0F,
F3,
F9,
FA,
F6,
07,
15,
18,
FD,
E2,
E2,
E3,
00,
19,
F6,
02,
06,
0A,
12,
0E,
06,
12,
14,
0D,
00,
F7,
FF,
06,
11,
03,
FC,
04,
FF,
FD,
03,
07,
FE,
C8,
D9,
E2,
08,
20,
15,
0D,
05,
FF,
0B,
14,
0B,
19,
1E,
11,
09,
0A,
0F,
08,
16,
12,
02,
16,
16,
02,
0B,
08,
F8,
D9,
E3,
E6,
F8,
10,
00,
F8,
F8,
0D,
FE,
0E,
10,
1D,
1B,
16,
0E,
11,
1D,
17,
0B,
16,
01,
08,
0F,
FB,
08,
15,
EA,
E5,
E4,
FF,
05,
08,
ED,
01,
F8,
11,
08,
0C,
0D,
15,
0C,
07,
0A,
F5,
03,
0F,
00,
08,
FE,
F0,
F1,
EF,
0E,
F9,
DA,
D7,
FC,
1D,
05,
03,
F1,
E5,
FE,
05,
04,
08,
08,
FE,
F9,
EF,
C7,
BC,
DE,
04,
02,
FD,
F1,
E8,
E3,
EB,
F7,
EA,
E7,
02,
11,
24,
01,
0D,
EE,
E2,
EE,
F3,
F5,
EF,
F0,
D2,
CE,
CC,
A2,
A9,
D9,
07,
FC,
F2,
E6,
E9,
E5,
EF,
FB,
F3,
E0,
F6,
DE,
15,
FE,
03,
E7,
DB,
DF,
D1,
C1,
AD,
AD,
91,
AE,
AB,
B3,
C3,
EC,
01,
00,
EF,
F4,
EB,
ED,
EE,
F2,
EC,
E2,
13,
03,
12,
0F,
03,
FE,
D5,
C7,
A6,
A2,
9E,
9B,
B4,
D3,
E6,
F8,
01,
0B,
05,
05,
F9,
F6,
F1,
F6,
06,
EB,
F6,
FF,
13,
04,
07,
02,
FD,
F4,
D3,
CF,
B8,
DB,
D3,
D8,
F9,
0D,
14,
1E,
1C,
22,
12,
10,
0C,
0B,
09,
FB,
06,
FC,
F6,
06,
FF,
19,
0D,
FE,
FD,
F3,
E9,
EB,
E7,
FC,
08,
0A,
17,
1F,
16,
10,
1C,
12,
12,
0C,
0D,
0A,
03,
F2,
09,
FC,
03,
14,
FC,
07,
15,
02,
FA,
F2,
E9,
EF,
09,
29,
26,
18,
19,
10,
09,
0F,
16,
0E,
06,
0D,
03,
05,
0C,
F7,
0D,
00,
13,
1F,
FE,
10,
1A,
01,
F8,
FB,
F8,
01,
1C,
2D,
1E,
14,
12,
01,
0A,
0E,
07,
14,
05,
05,
F8,
FC,
03,
FE,
F5,
06,
0D,
1F,
0E,
1A,
F7,
02,
FC,
EF,
0D,
05,
1A,
13,
17,
16,
0C,
0B,
0D,
12,
0A,
07,
00,
FF,
04,
02,
1C,
06,
F2,
F8,
06,
0F,
27,
24,
17,
04,
E6,
0B,
02,
06,
01,
03,
03,
09,
09,
06,
17,
13,
12,
03,
F3,
F1,
00,
0A,
12,
03,
03,
FA,
FE,
0D,
3A,
0F,
1C,
03,
E2,
0B,
08,
F7,
03,
04,
F3,
FB,
00,
02,
0A,
06,
07,
01,
F8,
F5,
02,
0A,
02,
FC,
03,
F6,
FB,
FE,
30,
10,
14,
0E,
0B,
01,
09,
F9,
0E,
FA,
E8,
EC,
F3,
01,
00,
00,
05,
05,
00,
04,
FA,
02,
01,
FF,
0C,
F8,
FE,
09,
2E,
0B,
FD,
12,
04,
03,
03,
0B,
1F,
FF,
F3,
F7,
F9,
FB,
F9,
FB,
06,
06,
07,
07,
FC,
F9,
06,
07,
02,
F9,
F4,
F8,
20,
18,
00,
FC,
FF,
E9,
E7,
0A,
13,
11,
0B,
F3,
FA,
EF,
01,
06,
06,
FC,
03,
03,
F2,
E5,
F0,
F3,
EF,
F6,
F4,
F1,
1D,
19,
01,
01,
FE,
11,
EB,
14,
00,
F5,
FF,
09,
0C,
F2,
FA,
F8,
F8,
F8,
F9,
EA,
F9,
E6,
DB,
F0,
EE,
EC,
EE,
1B,
15,
0B,
03,
FF,
01,
EE,
26,
0F,
EF,
FC,
20,
1F,
0C,
FA,
F2,
FA,
EF,
05,
12,
0B,
FE,
D9,
C9,
DD,
D4,
F1,
08,
FF,
04,
02,
FD,
00,
FF,
FF,
FE,
DE,
DB,
E2,
17,
00,
0E,
02,
F0,
EC,
F3,
0B,
1A,
0A,
00,
FD,
F7,
F1,
E1,
E5,
F9,
FE,
07,
FD,
03,
01,
04,
03,
FF,
06,
0E,
15,
0D,
09,
1F,
23,
30,
20,
14,
0A,
13,
23,
15,
00,
FE,
FC,
E5,
E2,
FE,
FD,
02,
02,
00;
