memory_initialization_radix=16;
memory_initialization_vector=
01,
FF,
00,
02,
02,
FD,
00,
01,
00,
00,
FE,
03,
00,
02,
0E,
07,
FE,
04,
FE,
01,
01,
03,
04,
01,
03,
FE,
00,
02,
FD,
FD,
FD,
03,
00,
05,
0C,
01,
02,
03,
09,
03,
FB,
FC,
DB,
DC,
F3,
FA,
13,
12,
0A,
FF,
FB,
0D,
FE,
FD,
FC,
FC,
02,
02,
06,
EC,
F1,
0C,
0F,
05,
15,
24,
15,
11,
10,
F7,
24,
2A,
29,
22,
0E,
0D,
16,
19,
13,
0F,
0C,
FE,
02,
01,
04,
FF,
E5,
EB,
FA,
26,
26,
1B,
02,
03,
0C,
16,
14,
06,
18,
0F,
1D,
01,
F8,
0E,
0A,
14,
0B,
05,
05,
06,
0E,
FF,
FC,
03,
E9,
E6,
0B,
10,
10,
FB,
FC,
01,
0E,
05,
04,
F3,
F0,
F6,
00,
05,
00,
F4,
F5,
F7,
F1,
F7,
FA,
FF,
FA,
F6,
00,
03,
FA,
F0,
10,
FC,
05,
F8,
0A,
10,
F3,
E4,
F3,
EA,
F1,
F1,
FB,
F2,
F7,
E6,
ED,
E0,
D4,
EB,
FA,
0A,
E1,
FD,
02,
EB,
E4,
E1,
0B,
FA,
F6,
F8,
FD,
FB,
E7,
F8,
F3,
F4,
F5,
02,
11,
15,
08,
F2,
F3,
FA,
EF,
DB,
E6,
F7,
F1,
EB,
FE,
E8,
EE,
E8,
F8,
EB,
F5,
DF,
F5,
F0,
F0,
F2,
FC,
FE,
FB,
FF,
03,
08,
02,
FC,
05,
00,
EB,
E8,
0E,
0C,
08,
EC,
E1,
09,
F9,
EE,
D6,
EF,
FF,
E1,
FB,
F7,
04,
0D,
00,
07,
FD,
F0,
ED,
E6,
F8,
FC,
FE,
F4,
F1,
F0,
02,
08,
F7,
EF,
07,
0D,
EC,
11,
E1,
ED,
EF,
FA,
FB,
FC,
08,
07,
06,
0B,
07,
F9,
DE,
DE,
F5,
F7,
FD,
EB,
E7,
E8,
F3,
DD,
0F,
17,
06,
FC,
DD,
FB,
EF,
03,
FE,
F2,
F5,
FD,
F9,
FD,
0A,
0E,
F8,
ED,
E8,
EB,
EC,
FC,
EA,
E8,
EB,
E5,
EC,
18,
FC,
09,
FF,
DB,
F6,
DF,
EA,
F0,
FA,
FD,
00,
F8,
F8,
F6,
0B,
F2,
E8,
F2,
00,
FA,
F8,
09,
FE,
FF,
ED,
DD,
D2,
ED,
CB,
ED,
FD,
F6,
03,
D7,
EE,
E1,
EF,
FC,
0B,
06,
0B,
04,
FF,
00,
0C,
0F,
1B,
06,
03,
05,
00,
03,
FA,
EA,
E0,
DD,
E3,
E8,
E1,
FA,
F8,
DE,
F0,
E4,
F8,
11,
0B,
FC,
0D,
02,
11,
23,
19,
1D,
1A,
0D,
0B,
06,
00,
07,
F8,
F4,
FA,
EF,
FA,
1A,
F4,
00,
EE,
09,
09,
F1,
FA,
0B,
0A,
0E,
0F,
18,
12,
11,
12,
25,
28,
09,
16,
0C,
04,
FB,
FF,
03,
F0,
10,
09,
13,
F5,
01,
EA,
1F,
11,
07,
FE,
04,
08,
07,
12,
18,
1A,
16,
15,
29,
25,
21,
1C,
18,
FF,
07,
0D,
07,
F3,
17,
01,
1D,
FF,
FF,
F9,
FA,
16,
10,
0D,
14,
0D,
FD,
0B,
27,
19,
10,
18,
24,
23,
22,
18,
0E,
07,
0C,
14,
0B,
F4,
20,
16,
FC,
04,
F4,
09,
FA,
14,
17,
10,
04,
0C,
FE,
18,
17,
0C,
08,
12,
21,
1B,
06,
0D,
FE,
FC,
0F,
05,
00,
E7,
19,
FD,
E9,
F8,
F3,
FD,
24,
25,
12,
01,
02,
00,
F2,
FE,
FE,
01,
04,
17,
1A,
1C,
0D,
0D,
0D,
FB,
00,
FC,
08,
FC,
02,
05,
23,
FA,
E2,
03,
26,
2C,
12,
E9,
EC,
DF,
DD,
F2,
FD,
FA,
F7,
16,
10,
07,
FC,
07,
04,
F9,
09,
10,
24,
08,
F4,
2A,
10,
FE,
EC,
01,
22,
25,
03,
E3,
ED,
E2,
E3,
E1,
ED,
EB,
EC,
FD,
F5,
EB,
EC,
FB,
EB,
EA,
F1,
FF,
0B,
23,
FE,
27,
02,
F2,
0F,
F9,
12,
1D,
0B,
F4,
F3,
F7,
EA,
E2,
E2,
EE,
F2,
E6,
D1,
DF,
DB,
EC,
D9,
DB,
EB,
F5,
FC,
00,
E0,
E1,
FD,
F9,
FE,
FF,
FD,
E2,
E2,
E7,
F3,
F7,
EF,
F9,
EA,
F0,
DF,
D1,
CA,
DC,
DB,
DF,
DE,
E5,
EF,
F2,
EF,
FB,
F6,
DF,
FA,
01,
FD,
E3,
EC,
DB,
DC,
EF,
02,
F9,
F2,
FB,
F2,
E4,
DE,
E7,
D2,
DB,
DE,
E6,
F1,
E8,
F0,
F4,
E8,
FE,
ED,
E4,
03,
FE,
04,
F0,
E1,
05,
06,
12,
19,
0F,
09,
08,
F6,
EB,
EB,
F4,
DD,
EE,
F5,
FD,
FB,
FE,
FA,
00,
00,
FF,
10,
0D,
01,
FF,
03,
15,
F7,
0A,
24,
14,
15,
02,
02,
05,
15,
05,
0F,
0F,
F6,
0F,
03,
F8,
F5,
09,
FD,
E8,
EF,
E9,
0C,
0A,
FF,
FF,
01,
FE,
09,
2F,
38,
2C,
20,
0F,
04,
11,
FF,
03,
03,
1D,
0D,
08,
F8,
FF,
FF,
10,
15,
14,
23,
24,
F4,
02,
03,
00,
04,
01,
02,
E9,
E0,
0D,
0F,
0A,
F9,
06,
08,
08,
02,
2E,
1B,
0E,
06,
10,
23,
17,
FF,
02,
FD,
03,
FD,
02,
FD;
