memory_initialization_radix=16;
memory_initialization_vector=
FF,
02,
02,
01,
02,
01,
FF,
FE,
01,
FD,
FE,
FF,
0A,
0A,
FC,
FC,
01,
01,
04,
01,
FF,
01,
00,
01,
FD,
02,
00,
04,
01,
FD,
04,
04,
00,
0B,
0E,
15,
17,
16,
19,
25,
29,
28,
0E,
33,
20,
2C,
1D,
16,
11,
05,
0A,
0F,
02,
03,
FF,
04,
03,
FF,
06,
1E,
19,
09,
1E,
20,
0B,
F6,
FF,
11,
02,
26,
21,
27,
29,
25,
2A,
2C,
15,
FA,
04,
01,
FE,
F6,
FD,
04,
02,
00,
FC,
20,
2A,
03,
18,
FE,
07,
10,
0A,
FB,
0C,
30,
25,
23,
15,
0C,
13,
1D,
05,
FE,
E7,
EF,
E9,
F7,
FD,
FF,
01,
FD,
F7,
12,
1C,
06,
F9,
ED,
FE,
07,
0A,
0C,
0D,
15,
17,
1C,
00,
FD,
05,
01,
FC,
0E,
F8,
E3,
CA,
D7,
F9,
FE,
FD,
03,
08,
DC,
F8,
11,
05,
F7,
05,
0C,
0C,
07,
07,
0F,
11,
14,
02,
06,
08,
03,
00,
F9,
F2,
EA,
DD,
D7,
04,
05,
FE,
03,
06,
F4,
FE,
09,
FB,
04,
0C,
F7,
02,
13,
0F,
18,
0E,
11,
10,
07,
0A,
FB,
01,
01,
EC,
D8,
F9,
07,
00,
ED,
00,
F4,
02,
F7,
EF,
FF,
00,
08,
F9,
0A,
17,
10,
0F,
08,
12,
10,
0B,
01,
FC,
FC,
06,
F8,
E4,
E3,
1A,
05,
F0,
F6,
FF,
03,
FB,
ED,
EC,
FD,
09,
03,
0C,
08,
0D,
19,
17,
09,
0A,
01,
EF,
EF,
F5,
F5,
00,
00,
EA,
EE,
10,
ED,
E5,
FB,
FD,
05,
F1,
F5,
18,
E7,
00,
0C,
0D,
13,
1A,
2C,
16,
06,
F7,
E9,
D7,
DC,
EF,
F1,
F5,
F0,
E5,
F6,
1F,
0C,
EE,
02,
00,
07,
05,
F1,
04,
EF,
F6,
03,
11,
22,
1B,
1D,
0F,
06,
E4,
ED,
EC,
F7,
EE,
F4,
FE,
F3,
F6,
FD,
18,
23,
FA,
FF,
02,
0E,
2E,
FB,
F7,
FB,
FC,
09,
0C,
12,
17,
0A,
FA,
EF,
EF,
00,
15,
1A,
10,
FB,
06,
03,
10,
14,
1B,
EF,
F1,
FF,
07,
06,
19,
04,
0D,
02,
0C,
0A,
1B,
14,
05,
FF,
E7,
E2,
F9,
11,
16,
13,
0D,
E8,
F9,
FD,
15,
2E,
1B,
F0,
F7,
FF,
05,
0A,
17,
03,
23,
11,
13,
06,
0F,
10,
05,
E4,
DB,
D0,
F4,
0D,
0D,
05,
E7,
E7,
F6,
07,
19,
25,
0C,
E8,
D8,
E5,
03,
05,
1D,
FD,
18,
0E,
08,
08,
13,
10,
09,
DE,
D8,
DF,
EE,
05,
0A,
FB,
F5,
E7,
05,
0A,
23,
35,
26,
E9,
DE,
EB,
0D,
0D,
FC,
F6,
FB,
12,
0D,
10,
07,
0E,
FA,
EB,
E7,
E3,
F6,
03,
07,
FC,
F9,
F3,
0B,
11,
18,
20,
13,
0F,
E4,
EB,
09,
08,
05,
F7,
06,
20,
0D,
0E,
0F,
01,
F3,
ED,
D8,
D8,
02,
0D,
F8,
F4,
F0,
FC,
0B,
09,
11,
08,
08,
08,
CD,
DE,
03,
0A,
EE,
13,
F3,
1B,
11,
FF,
02,
FC,
F7,
E1,
CE,
D2,
14,
1E,
00,
FC,
FE,
FD,
05,
F3,
08,
FE,
0E,
EC,
D9,
ED,
08,
E3,
F0,
FF,
F0,
09,
00,
FD,
FA,
FA,
EE,
DC,
C9,
CE,
14,
1A,
01,
0D,
0D,
0D,
0A,
04,
01,
01,
0C,
04,
DC,
E0,
00,
13,
13,
00,
FA,
F6,
04,
FC,
02,
FA,
F2,
F2,
D6,
E0,
19,
27,
13,
05,
0E,
1D,
1A,
00,
00,
00,
19,
0F,
D8,
E5,
04,
00,
0E,
FC,
07,
FA,
FD,
F7,
00,
0D,
01,
F0,
F4,
F8,
1D,
20,
1C,
1E,
1D,
1D,
04,
F6,
03,
F2,
0E,
18,
E0,
09,
03,
ED,
EC,
00,
20,
1D,
12,
0B,
14,
07,
01,
F5,
FD,
09,
19,
1C,
22,
14,
1A,
14,
17,
0E,
F2,
DE,
0C,
15,
11,
04,
04,
00,
DB,
EE,
1C,
1E,
04,
00,
11,
03,
F8,
F2,
FF,
0A,
1B,
21,
1E,
1B,
14,
0A,
11,
F6,
E2,
DC,
F6,
0D,
17,
07,
02,
FD,
EC,
E9,
F4,
FF,
F7,
E8,
E3,
E8,
ED,
DE,
FA,
F5,
12,
15,
10,
0D,
FA,
0A,
FE,
F5,
ED,
E4,
01,
09,
0C,
01,
00,
FD,
02,
05,
F7,
F4,
E2,
E9,
EE,
ED,
07,
F0,
FD,
FD,
F9,
14,
07,
15,
08,
04,
10,
FD,
F0,
F5,
FC,
EC,
FD,
02,
03,
02,
F2,
10,
FE,
F9,
FC,
07,
02,
05,
DD,
F9,
0F,
03,
0D,
05,
FF,
01,
04,
0C,
0A,
18,
17,
1C,
2B,
FF,
01,
FD,
FC,
01,
04,
FE,
00,
00,
FE,
07,
2E,
2B,
06,
00,
F9,
10,
2A,
23,
1D,
0C,
12,
37,
34,
31,
31,
05,
0F,
FE,
00,
02,
03,
FC,
04,
02,
08,
08,
06,
03,
11,
2A,
2D,
24,
23,
24,
25,
09,
13,
2C,
23,
19,
13,
23,
23,
1C,
03,
FD,
FE,
FD;
