memory_initialization_radix=16;
memory_initialization_vector=
FE,
FE,
FD,
03,
02,
03,
00,
FD,
FD,
FF,
00,
FD,
FD,
FC,
FD,
FC,
04,
03,
FE,
02,
FE,
FD,
03,
00,
FE,
02,
FF,
FE,
00,
02,
03,
03,
FF,
FF,
00,
FF,
FD,
FE,
FB,
F9,
FE,
FD,
00,
FB,
FD,
FD,
FD,
01,
FF,
FD,
03,
04,
FE,
FC,
04,
FC,
00,
FE,
FF,
04,
05,
00,
FA,
FC,
10,
10,
15,
0D,
04,
F5,
E9,
E7,
F0,
03,
15,
15,
0E,
F8,
F9,
03,
03,
02,
FD,
04,
FE,
FC,
FC,
00,
03,
1D,
17,
0C,
07,
FD,
04,
03,
0E,
12,
13,
0B,
F7,
FE,
F1,
EC,
E3,
EB,
E2,
EB,
0C,
01,
04,
02,
01,
FF,
17,
1E,
15,
09,
15,
09,
10,
08,
06,
13,
03,
F9,
FF,
1A,
0F,
0C,
0A,
00,
F4,
0C,
21,
0B,
05,
22,
28,
FE,
02,
03,
06,
0F,
14,
23,
16,
08,
0D,
0D,
14,
0A,
0A,
12,
0D,
FC,
01,
03,
05,
00,
01,
FD,
12,
16,
06,
1D,
28,
FB,
FE,
11,
0D,
1C,
1E,
29,
0E,
FB,
0A,
08,
10,
03,
02,
13,
0A,
06,
01,
0C,
10,
04,
05,
09,
05,
06,
0E,
29,
26,
19,
FE,
1F,
13,
08,
0E,
07,
07,
00,
0B,
09,
0B,
0B,
0D,
11,
16,
05,
1B,
1E,
15,
0F,
12,
08,
F8,
FE,
FF,
10,
08,
1C,
05,
05,
10,
06,
FA,
F9,
F6,
F9,
03,
0C,
06,
06,
14,
09,
18,
12,
17,
13,
07,
02,
0D,
10,
05,
00,
FE,
0D,
04,
12,
05,
0A,
10,
FF,
18,
FD,
FA,
05,
03,
07,
02,
06,
08,
02,
FE,
FC,
F7,
F8,
00,
F7,
FA,
04,
0E,
07,
0D,
13,
FA,
17,
07,
08,
16,
08,
11,
FC,
F9,
03,
08,
00,
F9,
FC,
F8,
FA,
EB,
E6,
EA,
F0,
F5,
EB,
FA,
06,
0A,
02,
10,
17,
1E,
1B,
01,
04,
08,
F4,
15,
EE,
FC,
FF,
FE,
FB,
FF,
01,
FA,
F7,
E4,
E2,
E6,
F8,
FF,
F3,
F8,
FB,
FE,
0A,
11,
05,
1B,
FC,
02,
06,
05,
F3,
11,
F3,
0B,
0C,
06,
05,
0B,
00,
F7,
F6,
F0,
E9,
EB,
F3,
F5,
EB,
FE,
F8,
EF,
12,
03,
EA,
10,
00,
03,
04,
07,
F9,
FE,
00,
0A,
12,
FF,
FF,
05,
F4,
00,
F4,
FD,
EB,
E7,
F0,
F3,
F1,
00,
06,
F8,
05,
0A,
E3,
05,
F3,
0C,
08,
11,
09,
FF,
F7,
0C,
12,
FE,
F6,
FA,
F8,
FF,
00,
0C,
02,
E7,
EE,
F2,
EF,
07,
06,
00,
16,
11,
D8,
01,
ED,
08,
0C,
12,
07,
FA,
0E,
06,
FB,
F4,
F4,
00,
04,
FC,
F9,
F7,
F3,
EA,
ED,
FA,
EC,
02,
0B,
FC,
09,
18,
DC,
25,
0B,
00,
0B,
1B,
0E,
FA,
FC,
E2,
DE,
DA,
E9,
FB,
F5,
F6,
FE,
EF,
F2,
ED,
F0,
FD,
FB,
FC,
06,
07,
FC,
15,
DA,
00,
0A,
FC,
0D,
F9,
16,
F6,
D7,
CD,
D3,
CA,
CB,
D9,
D7,
D3,
DB,
D4,
E6,
E6,
F7,
02,
04,
FC,
02,
04,
07,
05,
08,
0F,
07,
08,
03,
00,
24,
F6,
E1,
D3,
DC,
D8,
C1,
BF,
B8,
BC,
B4,
CD,
E3,
F5,
02,
07,
07,
09,
0F,
11,
05,
FF,
F7,
06,
00,
FC,
03,
2C,
18,
02,
EE,
E4,
E9,
EA,
D9,
D2,
E0,
E4,
DF,
F1,
F3,
06,
03,
03,
02,
14,
10,
05,
02,
05,
FA,
01,
FD,
FF,
02,
15,
22,
00,
FF,
EE,
F6,
07,
00,
FB,
0A,
0C,
1D,
13,
15,
0F,
04,
03,
07,
08,
FD,
FE,
03,
F3,
F3,
0A,
01,
01,
05,
FD,
1F,
07,
EF,
FA,
00,
0B,
01,
11,
22,
33,
31,
28,
1F,
17,
FE,
01,
03,
04,
FB,
05,
15,
0A,
F6,
06,
06,
02,
06,
06,
1D,
0C,
0C,
FF,
F7,
16,
0E,
15,
29,
27,
20,
16,
16,
0F,
09,
0B,
17,
09,
FB,
1A,
14,
EA,
E7,
06,
01,
FF,
FD,
1A,
24,
32,
1E,
1A,
06,
1D,
26,
2C,
25,
1B,
0A,
0F,
0D,
01,
0F,
0C,
02,
09,
03,
FB,
EE,
F4,
EC,
12,
04,
FD,
FE,
F3,
1B,
41,
31,
21,
1C,
20,
2B,
24,
12,
18,
14,
0C,
0C,
FD,
14,
0B,
FB,
F2,
F3,
01,
E9,
FB,
F8,
FA,
FD,
02,
FE,
04,
17,
22,
0F,
06,
1A,
19,
22,
0D,
12,
23,
10,
F7,
F9,
FB,
01,
08,
21,
12,
17,
28,
14,
09,
FE,
FC,
04,
FE,
FD,
02,
FE,
FC,
EF,
F6,
FE,
02,
08,
03,
01,
0F,
00,
01,
15,
15,
F5,
0C,
2F,
20,
20,
1E,
0A,
04,
09,
FF,
04,
03,
FF,
FD,
FE,
06,
13,
0E,
07,
0A,
13,
1C,
0F,
14,
18,
07,
FE,
02,
08,
FE,
F4,
00,
FC,
04,
06,
01,
04,
02,
00;
