memory_initialization_radix=16;
memory_initialization_vector=
01,
03,
FE,
FD,
FC,
04,
FF,
02,
01,
02,
03,
FD,
FC,
FB,
ED,
FD,
FC,
FF,
FD,
FF,
02,
00,
01,
FE,
01,
04,
04,
FC,
01,
FD,
00,
00,
FE,
FD,
F1,
F7,
FC,
0B,
04,
F4,
F4,
0A,
F6,
D9,
EC,
F5,
18,
FA,
02,
0C,
FF,
FB,
04,
03,
03,
03,
FD,
04,
FA,
E9,
E4,
FE,
00,
FA,
0C,
FA,
DF,
E9,
00,
DD,
ED,
EB,
EF,
F1,
ED,
EF,
F7,
0B,
0B,
EF,
FF,
F4,
01,
FC,
FE,
FD,
DF,
DF,
D5,
1B,
FD,
17,
1E,
E9,
FB,
18,
FC,
F1,
19,
14,
10,
14,
14,
0A,
15,
0F,
03,
10,
10,
F9,
06,
FE,
FC,
0A,
E7,
18,
0C,
FD,
01,
09,
07,
F7,
F8,
F6,
FC,
02,
FF,
04,
01,
09,
05,
07,
05,
0F,
13,
FA,
06,
FF,
E3,
12,
00,
04,
E2,
02,
03,
00,
02,
0A,
12,
02,
FA,
09,
0B,
0B,
0C,
03,
04,
09,
09,
0E,
03,
EC,
EA,
F8,
00,
09,
DB,
FA,
FE,
10,
18,
0B,
17,
08,
FD,
F7,
09,
0C,
FD,
FF,
0E,
10,
10,
18,
10,
13,
03,
06,
01,
06,
F6,
FD,
F4,
F4,
F4,
13,
FE,
28,
27,
19,
13,
02,
FE,
ED,
F3,
F9,
EE,
FE,
08,
18,
0C,
13,
03,
09,
09,
0B,
01,
FD,
FA,
FA,
13,
07,
F8,
0A,
E5,
09,
20,
1D,
13,
00,
F7,
F2,
F1,
FC,
F7,
03,
09,
09,
07,
0E,
0C,
FE,
12,
05,
08,
0D,
0D,
F6,
F9,
10,
01,
EF,
15,
1C,
1B,
18,
09,
07,
04,
F6,
F3,
F9,
F9,
00,
07,
04,
07,
05,
FE,
04,
06,
12,
27,
18,
10,
07,
E9,
F1,
E3,
0E,
17,
00,
02,
22,
09,
09,
03,
00,
EE,
01,
F8,
FC,
FA,
06,
00,
F4,
FC,
03,
13,
0E,
1E,
07,
19,
F8,
DD,
E3,
DD,
03,
18,
F1,
23,
27,
05,
06,
00,
06,
11,
14,
1A,
0B,
13,
04,
01,
FD,
FA,
0C,
06,
09,
16,
06,
03,
DA,
BC,
D8,
E7,
EB,
FE,
0A,
20,
00,
02,
0E,
FB,
00,
07,
03,
14,
04,
FC,
04,
08,
0B,
0B,
FF,
11,
0C,
11,
0D,
01,
ED,
C2,
C6,
D5,
FE,
E4,
09,
18,
F9,
0C,
08,
FE,
FF,
0C,
07,
13,
FD,
FB,
07,
03,
0B,
07,
FA,
14,
0F,
17,
16,
FC,
E3,
C8,
D3,
D3,
E6,
F3,
0E,
EE,
07,
0F,
05,
FC,
0F,
09,
07,
06,
03,
0A,
05,
03,
06,
FF,
09,
1B,
26,
22,
11,
FE,
DF,
B5,
D5,
D5,
EE,
F8,
0B,
ED,
14,
08,
09,
0D,
0F,
03,
F6,
06,
06,
08,
F9,
FB,
0E,
FE,
1A,
1C,
28,
29,
14,
1A,
F4,
B2,
CA,
FB,
E6,
18,
0E,
FF,
01,
13,
07,
0C,
15,
12,
09,
0A,
05,
09,
FA,
FC,
0D,
07,
1C,
25,
22,
1B,
09,
0E,
F1,
D0,
CC,
E5,
DB,
03,
05,
08,
FE,
0D,
F9,
F8,
16,
13,
06,
01,
FC,
F5,
00,
FD,
09,
12,
22,
0F,
12,
00,
08,
06,
F2,
E0,
D9,
F8,
DD,
1B,
10,
14,
0B,
FF,
FE,
06,
04,
03,
F8,
FC,
FE,
FE,
FD,
04,
11,
1D,
1D,
0C,
01,
04,
07,
FE,
E4,
C6,
D4,
04,
DD,
EF,
0F,
FA,
1B,
10,
14,
03,
04,
05,
F7,
FC,
F0,
F8,
F3,
04,
03,
01,
0F,
01,
FE,
FA,
02,
F2,
D6,
BE,
CE,
E8,
E0,
03,
11,
F1,
0F,
04,
0B,
F7,
FC,
F8,
F6,
F1,
E8,
E7,
02,
06,
FC,
F5,
F4,
F2,
F1,
F5,
F3,
E4,
DC,
DA,
F7,
EB,
F8,
F0,
FA,
FB,
FA,
F4,
F3,
F4,
F7,
FF,
F2,
FA,
FD,
FC,
02,
01,
FE,
FE,
FF,
EB,
F4,
DF,
D8,
ED,
E3,
E0,
EA,
DF,
FF,
EF,
FE,
0D,
F6,
EF,
DD,
EB,
FC,
F8,
F0,
0A,
09,
0F,
05,
FF,
09,
0B,
FC,
F0,
F1,
E5,
E2,
05,
F3,
DC,
EC,
D3,
01,
00,
03,
0E,
15,
FF,
F5,
FB,
0B,
01,
ED,
00,
05,
F6,
05,
05,
01,
FD,
F2,
02,
F5,
EB,
F0,
EA,
F9,
F6,
EE,
DF,
00,
FD,
FE,
21,
25,
3F,
23,
20,
1D,
0A,
FC,
05,
06,
F9,
05,
06,
0D,
1A,
FC,
E0,
E7,
00,
F5,
FB,
09,
E2,
EF,
F4,
FE,
FE,
04,
13,
F2,
28,
49,
17,
1D,
0A,
14,
3D,
3C,
13,
11,
12,
08,
1F,
09,
06,
00,
01,
F8,
E3,
E8,
E7,
FE,
FA,
FF,
04,
FC,
02,
00,
0B,
33,
40,
4C,
45,
3E,
3D,
2B,
2F,
3B,
37,
0D,
26,
32,
21,
FE,
06,
17,
10,
1F,
1D,
FD,
FC,
00,
00,
00,
03,
00,
F6,
FA,
0A,
0F,
0F,
07,
12,
08,
07,
0C,
32,
27,
2A,
2B,
21,
1E,
1F,
2A,
24,
0E,
FF,
FC,
01,
FF;
