memory_initialization_radix=16;
memory_initialization_vector=
01,
FE,
02,
00,
FD,
FF,
04,
03,
FD,
04,
01,
01,
09,
FE,
02,
04,
03,
02,
01,
FD,
FC,
FF,
01,
03,
FE,
FC,
FE,
FD,
FC,
FE,
02,
02,
06,
06,
09,
05,
03,
03,
10,
FE,
FB,
FB,
E7,
E1,
F5,
F8,
15,
0F,
07,
07,
0D,
0A,
00,
FE,
FF,
FF,
04,
FD,
02,
E5,
ED,
0B,
0C,
12,
26,
3C,
2C,
28,
22,
FD,
1D,
0E,
04,
02,
0A,
F0,
FD,
17,
11,
05,
0D,
07,
FE,
FE,
FD,
04,
EA,
E5,
F9,
03,
14,
16,
08,
15,
0F,
1A,
10,
0E,
10,
0E,
0A,
F7,
FA,
01,
E9,
0F,
17,
1D,
0C,
EF,
04,
02,
01,
FC,
E9,
D5,
FF,
09,
1B,
1B,
0C,
0A,
1C,
11,
17,
1A,
18,
FF,
13,
0C,
05,
00,
01,
FD,
F4,
00,
0F,
0C,
0A,
20,
00,
FD,
FB,
03,
11,
E6,
F8,
0F,
02,
FD,
08,
0A,
15,
09,
0F,
FF,
10,
13,
07,
09,
05,
03,
FC,
06,
15,
27,
17,
19,
04,
09,
F0,
03,
0B,
F7,
F7,
07,
01,
09,
FB,
FE,
0B,
FC,
01,
04,
FF,
FE,
F4,
00,
EF,
E9,
FB,
02,
12,
27,
0E,
20,
FC,
F6,
FA,
FB,
1C,
0B,
F9,
FE,
0A,
FE,
FC,
0A,
05,
03,
F3,
F5,
F0,
F0,
F0,
F7,
F8,
00,
07,
ED,
0D,
25,
1D,
18,
E4,
F7,
00,
09,
24,
06,
FD,
FD,
F7,
FB,
FF,
06,
03,
0A,
F4,
E5,
E1,
EF,
EB,
00,
F9,
FB,
FA,
04,
FE,
1A,
21,
04,
F7,
E5,
07,
0A,
FF,
0C,
F8,
F0,
F4,
F7,
F8,
02,
05,
00,
F9,
EE,
EB,
F1,
F7,
03,
03,
09,
04,
08,
F5,
12,
06,
E7,
F5,
F0,
EE,
01,
04,
0B,
FF,
F9,
F1,
FB,
03,
0D,
15,
FD,
F2,
EC,
DE,
EC,
03,
03,
FE,
03,
FB,
0D,
05,
E3,
F9,
ED,
F2,
DC,
E1,
F5,
05,
0F,
03,
FE,
FE,
0C,
08,
08,
11,
EE,
F7,
E8,
EA,
EF,
FE,
03,
F7,
FD,
F9,
FC,
0B,
18,
09,
DB,
FF,
F7,
FA,
03,
F9,
04,
F5,
06,
01,
07,
07,
06,
01,
FC,
F1,
ED,
FC,
02,
F2,
F9,
FB,
0F,
03,
FE,
20,
0E,
F5,
E8,
F2,
FC,
EE,
FE,
EA,
02,
FF,
FA,
01,
04,
01,
02,
06,
0D,
FF,
03,
0C,
FE,
FA,
06,
0D,
07,
0E,
0A,
0E,
09,
1D,
1D,
0B,
F8,
EA,
04,
EA,
05,
08,
00,
FF,
FF,
0A,
15,
0A,
0B,
10,
0C,
18,
09,
F9,
FF,
04,
00,
04,
F1,
E9,
1A,
35,
16,
02,
F9,
03,
13,
F3,
FF,
09,
0A,
0B,
0C,
0A,
11,
09,
18,
1B,
16,
16,
09,
FC,
07,
FC,
FF,
FA,
EE,
EA,
24,
0A,
1F,
F6,
F8,
F9,
0D,
F3,
FC,
13,
12,
11,
15,
0D,
07,
09,
10,
18,
0F,
12,
0A,
05,
06,
F7,
0A,
FE,
05,
F7,
46,
2A,
0F,
03,
F0,
0F,
FC,
FE,
07,
13,
0F,
0D,
08,
03,
FD,
FE,
0F,
0E,
0D,
0A,
03,
03,
FC,
FD,
0D,
07,
FB,
ED,
24,
03,
EB,
E9,
FD,
FC,
0F,
0C,
10,
13,
11,
FB,
FF,
FE,
EF,
0B,
14,
11,
0D,
0D,
01,
FF,
FF,
FD,
05,
FD,
04,
FF,
17,
F9,
07,
F8,
E0,
F5,
01,
08,
0A,
0B,
08,
FD,
01,
03,
FA,
F1,
0D,
0F,
11,
0A,
09,
03,
F8,
F8,
07,
0A,
09,
EA,
F7,
13,
F6,
FF,
EE,
0F,
00,
02,
07,
03,
0D,
0B,
09,
01,
FC,
FC,
0B,
13,
17,
0C,
06,
00,
F9,
03,
0B,
03,
07,
EE,
F2,
04,
F0,
F0,
09,
11,
07,
0E,
F5,
F9,
05,
0F,
11,
04,
0F,
09,
1B,
20,
10,
05,
12,
08,
06,
FC,
00,
12,
1C,
F7,
F1,
E7,
FF,
F9,
F8,
0D,
16,
0A,
F7,
FC,
09,
01,
07,
0D,
13,
11,
15,
00,
02,
02,
FB,
FD,
05,
00,
0D,
0E,
0F,
FE,
F5,
E9,
FF,
FF,
FE,
17,
06,
16,
FC,
EF,
F7,
07,
FF,
00,
03,
07,
FB,
F6,
F8,
01,
EE,
0C,
17,
10,
1F,
21,
0F,
E7,
F7,
E5,
00,
00,
03,
E7,
E2,
E1,
D8,
EA,
EF,
F8,
FC,
F8,
05,
FC,
F7,
03,
FF,
0F,
FC,
10,
14,
01,
0E,
16,
05,
04,
14,
05,
03,
04,
FF,
05,
F2,
EF,
EA,
F0,
E2,
D0,
CC,
F0,
EF,
E8,
FA,
08,
17,
0E,
10,
07,
F0,
FA,
EF,
01,
03,
E3,
06,
06,
FC,
04,
01,
01,
FC,
15,
0A,
03,
EB,
ED,
C8,
CA,
E8,
F7,
CB,
C7,
D5,
BB,
D4,
DA,
CD,
C8,
D3,
D4,
F4,
E9,
FA,
00,
01,
FC,
04,
01,
FD,
F6,
DD,
EC,
EE,
EB,
E9,
DF,
F3,
F0,
E2,
D6,
FA,
E7,
D2,
D8,
E7,
F7,
E4,
DE,
E1,
01,
00,
03,
FE;
