memory_initialization_radix=16;
memory_initialization_vector=
FF,
03,
04,
02,
FE,
03,
02,
FE,
01,
FF,
FE,
03,
FB,
FB,
FE,
FD,
FC,
FD,
01,
04,
03,
FD,
FD,
00,
02,
04,
02,
FC,
00,
02,
00,
01,
FA,
FA,
F0,
F1,
F3,
F3,
FF,
F2,
EC,
F9,
14,
E3,
DF,
DC,
F1,
F0,
ED,
F5,
F9,
F4,
02,
FF,
FD,
FE,
04,
FC,
00,
E7,
E1,
F7,
F1,
F0,
EB,
E2,
ED,
04,
FF,
15,
05,
E8,
E2,
F5,
E7,
F1,
00,
04,
FC,
EB,
F3,
FC,
02,
01,
03,
FF,
14,
DF,
E8,
F3,
E8,
D9,
C9,
F2,
E7,
E1,
D3,
EB,
EB,
EA,
F4,
EE,
DF,
E9,
D7,
FA,
10,
1E,
07,
E9,
F2,
FC,
01,
F6,
10,
DB,
02,
15,
07,
FD,
04,
07,
03,
F6,
08,
0C,
06,
F9,
07,
02,
F0,
04,
04,
02,
07,
05,
04,
F3,
FC,
0E,
00,
FE,
F1,
ED,
03,
18,
0E,
0A,
06,
09,
04,
03,
0F,
07,
12,
10,
FE,
01,
FA,
08,
02,
0A,
04,
01,
06,
0F,
EB,
06,
01,
ED,
EA,
FA,
03,
02,
0C,
10,
08,
FE,
F7,
04,
06,
02,
02,
03,
01,
02,
F9,
07,
01,
08,
05,
06,
EA,
FC,
F6,
16,
01,
D6,
FA,
02,
FF,
FB,
FD,
F6,
F7,
00,
03,
FE,
01,
FB,
F9,
04,
F9,
01,
03,
0C,
0C,
12,
12,
06,
F4,
F7,
F9,
0F,
E2,
E7,
04,
05,
02,
09,
0C,
00,
07,
0B,
00,
FB,
FC,
0D,
07,
FF,
EE,
F2,
01,
08,
00,
06,
04,
FA,
F8,
0C,
0A,
F7,
F6,
EC,
F6,
F3,
F2,
03,
07,
FF,
02,
04,
FC,
FD,
F7,
10,
0A,
04,
F9,
F7,
04,
07,
0D,
0E,
F9,
02,
FB,
FB,
F6,
EC,
FC,
F7,
F5,
EE,
00,
09,
FB,
F9,
FC,
01,
FB,
FF,
0B,
00,
0B,
04,
ED,
FA,
FF,
0A,
00,
04,
01,
FD,
EA,
E0,
E7,
07,
FA,
E9,
E5,
F4,
F2,
07,
FD,
FF,
FB,
04,
08,
02,
10,
02,
10,
00,
FC,
F9,
FD,
06,
01,
06,
FA,
F7,
F1,
EA,
FF,
F4,
FB,
FD,
F6,
05,
FE,
02,
F6,
01,
FE,
03,
FB,
08,
08,
08,
F8,
05,
0D,
07,
04,
0C,
13,
1D,
10,
15,
05,
DE,
E1,
DD,
10,
FF,
EE,
03,
F8,
FB,
FC,
FA,
0E,
11,
FF,
09,
03,
03,
01,
15,
14,
17,
0B,
14,
1D,
16,
17,
FC,
DF,
E8,
E0,
EF,
F7,
FB,
E8,
F9,
F3,
09,
F6,
02,
0C,
0C,
05,
11,
03,
0C,
0C,
0B,
21,
1C,
0F,
18,
0F,
03,
FE,
E3,
D7,
05,
DE,
F6,
F6,
F5,
03,
14,
F3,
E1,
F8,
0C,
14,
19,
0B,
10,
06,
0D,
13,
0E,
1F,
0E,
03,
08,
F5,
F1,
F4,
E8,
CB,
F9,
EF,
EF,
05,
F0,
FF,
02,
E6,
E9,
0A,
06,
1E,
13,
0F,
0F,
0B,
00,
0E,
10,
15,
FF,
F4,
F5,
F5,
F2,
E3,
E6,
DA,
F4,
ED,
E1,
FE,
F5,
0D,
EF,
F2,
EE,
FA,
FF,
0E,
18,
0E,
08,
04,
FB,
0C,
0A,
0D,
F8,
F6,
F1,
FA,
F1,
F2,
E9,
F2,
E5,
E6,
E1,
EA,
FA,
07,
F2,
EC,
EC,
F2,
F9,
F9,
0B,
FE,
FA,
FF,
04,
03,
FB,
F5,
F1,
F0,
F1,
F9,
F1,
F1,
E0,
F8,
E8,
F5,
ED,
0C,
EF,
F4,
F2,
E2,
EB,
ED,
F2,
FA,
05,
FC,
F1,
EE,
F5,
FB,
F8,
FC,
F4,
F2,
00,
F9,
F3,
F1,
E8,
E8,
E5,
01,
F0,
FC,
06,
F4,
E1,
DA,
E5,
EA,
F2,
F5,
F6,
FA,
F4,
FC,
EE,
F4,
FF,
FE,
00,
FB,
FE,
F9,
FA,
F3,
EC,
EA,
E5,
FF,
0A,
09,
FF,
DE,
DF,
EC,
04,
02,
FD,
06,
07,
07,
02,
FF,
FE,
03,
FD,
FA,
06,
02,
07,
FD,
03,
03,
FC,
ED,
F0,
DD,
FB,
0C,
04,
E9,
E7,
FB,
0A,
14,
0F,
0F,
0B,
0E,
09,
04,
01,
FD,
02,
00,
01,
07,
05,
09,
15,
09,
00,
FA,
03,
E3,
01,
FF,
FE,
DB,
D5,
E8,
EC,
FD,
0B,
12,
0E,
02,
00,
00,
04,
FE,
01,
04,
00,
09,
12,
0A,
16,
13,
0A,
F1,
FD,
E6,
01,
FD,
03,
FB,
D7,
D8,
F0,
00,
00,
08,
03,
FF,
0A,
FB,
EE,
EE,
EE,
F3,
D9,
FA,
06,
06,
FB,
07,
02,
DF,
FF,
FD,
04,
02,
FF,
0E,
15,
FA,
F6,
FA,
F1,
F0,
F2,
F9,
F7,
DD,
E8,
FD,
F4,
E9,
F0,
FA,
E0,
F4,
F8,
EB,
ED,
D9,
01,
FA,
FD,
FD,
04,
FD,
02,
26,
1C,
12,
FA,
FB,
F8,
EC,
E2,
E9,
EA,
FC,
EF,
E7,
E9,
ED,
D7,
E6,
FA,
F4,
0A,
07,
00,
00,
FE,
03,
02,
FE,
FE,
F6,
E9,
01,
06,
FB,
F2,
F1,
F9,
ED,
E3,
EF,
0A,
FF,
F6,
01,
0F,
06,
01,
FF,
E1,
04,
FC,
FF,
01;
