memory_initialization_radix=16;
memory_initialization_vector=
FC,
FD,
FD,
FE,
03,
04,
FE,
FC,
FD,
00,
FE,
02,
00,
04,
FC,
FD,
03,
00,
02,
FD,
02,
FE,
03,
03,
FE,
FF,
00,
00,
00,
02,
00,
FE,
FE,
00,
00,
09,
FC,
01,
FE,
0E,
08,
FB,
0F,
19,
06,
10,
1C,
1F,
1C,
0D,
0E,
06,
FD,
FD,
00,
FC,
02,
01,
04,
05,
0D,
09,
06,
03,
00,
F9,
F8,
EC,
DA,
E5,
EB,
EB,
EE,
02,
0D,
42,
3B,
38,
37,
1A,
04,
FF,
FE,
FF,
04,
03,
EF,
13,
1E,
22,
0D,
FE,
D9,
D3,
C5,
C7,
D2,
D7,
E9,
E7,
E9,
0C,
1E,
14,
16,
25,
1D,
46,
1C,
F0,
15,
FD,
01,
05,
E0,
0A,
FA,
16,
0E,
F3,
D9,
D8,
DC,
DF,
DD,
ED,
F1,
F7,
FC,
05,
06,
0C,
02,
08,
10,
3C,
1F,
FF,
1E,
23,
03,
FF,
11,
16,
FE,
26,
18,
06,
DA,
E6,
DD,
D6,
E7,
E7,
EC,
F5,
F5,
0D,
0A,
13,
11,
06,
F8,
FD,
1A,
FC,
24,
25,
00,
EC,
05,
0F,
0C,
12,
13,
04,
FB,
D1,
D2,
D9,
DE,
DB,
F4,
02,
01,
13,
19,
17,
23,
08,
03,
16,
12,
24,
01,
21,
03,
D8,
FD,
09,
12,
FA,
DF,
F7,
D9,
CA,
D8,
E4,
F4,
F9,
0F,
21,
13,
1B,
1D,
11,
1C,
08,
06,
16,
01,
20,
14,
27,
16,
D2,
09,
0D,
1A,
09,
05,
F5,
D3,
C4,
DA,
F0,
0C,
19,
11,
0C,
0E,
0D,
08,
FF,
0A,
13,
06,
04,
22,
1C,
08,
0C,
F1,
E8,
04,
DE,
1A,
08,
EB,
E0,
C1,
D2,
E3,
F6,
FF,
15,
0D,
08,
00,
00,
EB,
F0,
FB,
04,
FD,
08,
2B,
23,
FD,
E7,
F6,
04,
06,
E7,
12,
02,
D1,
D5,
C7,
D1,
E7,
F9,
02,
0B,
18,
06,
FF,
F1,
F3,
E6,
ED,
FC,
04,
0D,
17,
0E,
FD,
E7,
F1,
F7,
0D,
F6,
0E,
07,
E4,
D6,
CE,
DE,
EA,
EF,
FA,
16,
16,
0B,
0A,
F9,
FA,
E3,
E8,
F7,
EB,
FA,
14,
10,
1F,
F4,
01,
FD,
0E,
08,
1F,
EF,
DE,
E2,
DF,
EF,
F9,
05,
FF,
1D,
1E,
15,
01,
0B,
F9,
EA,
E5,
EA,
D1,
E7,
E7,
DD,
F8,
ED,
19,
FE,
F2,
F3,
F6,
C1,
DE,
E9,
FA,
FF,
F4,
FC,
15,
1A,
1C,
11,
FC,
FD,
EA,
EE,
EC,
CC,
B9,
C9,
D9,
DF,
F0,
01,
09,
05,
08,
EF,
E2,
D8,
E6,
EF,
FD,
01,
F7,
02,
06,
20,
1F,
12,
01,
F9,
F0,
F0,
01,
E5,
C7,
B7,
D6,
04,
EA,
FA,
09,
05,
04,
DE,
F7,
F7,
03,
0A,
0C,
FA,
FC,
FD,
16,
13,
12,
04,
06,
00,
0A,
FB,
F7,
DE,
CE,
E1,
F1,
02,
DE,
F5,
F8,
07,
F5,
F6,
06,
11,
FF,
FA,
F9,
F3,
FE,
04,
10,
0A,
03,
F6,
04,
03,
05,
F6,
EE,
BF,
DF,
FD,
0D,
FD,
F0,
F8,
FE,
10,
E8,
EE,
01,
FA,
F7,
04,
FB,
FD,
05,
FE,
03,
F7,
01,
05,
0D,
0F,
11,
FD,
F1,
C1,
D9,
08,
0E,
07,
0E,
FE,
FC,
01,
01,
CE,
F1,
F4,
FB,
01,
FE,
05,
02,
02,
FF,
FB,
09,
0C,
15,
21,
15,
F5,
DA,
CA,
D1,
E7,
02,
0F,
18,
F0,
13,
F0,
0A,
CA,
EE,
FF,
01,
03,
F5,
FF,
06,
06,
05,
FB,
FD,
09,
0E,
1E,
0F,
E9,
CD,
D2,
D7,
FA,
12,
10,
0D,
F0,
FF,
0C,
F7,
DA,
EF,
06,
0B,
04,
F8,
F4,
06,
FD,
FB,
05,
FB,
02,
03,
12,
F7,
D3,
B6,
C1,
D9,
FC,
0D,
10,
07,
19,
0F,
FB,
E6,
E8,
E5,
FC,
0A,
06,
FB,
FF,
06,
0B,
0E,
0B,
02,
FD,
F9,
02,
EE,
CD,
C3,
CA,
DA,
07,
18,
14,
04,
01,
0C,
08,
E3,
F2,
EC,
F5,
07,
06,
02,
0D,
17,
18,
1D,
17,
12,
FC,
ED,
E5,
E2,
DE,
C7,
D2,
E6,
0E,
1B,
17,
F6,
02,
02,
00,
F6,
DE,
F0,
F6,
F1,
FB,
0F,
08,
0D,
14,
1E,
13,
0B,
04,
F1,
D2,
C2,
C4,
F6,
ED,
FD,
FF,
02,
11,
EC,
01,
FC,
FE,
FE,
F1,
FB,
04,
EF,
EB,
F6,
F5,
EF,
F2,
0C,
12,
0A,
0B,
FE,
DC,
DD,
D4,
ED,
E5,
E1,
F0,
FC,
F8,
FD,
02,
FD,
01,
07,
F1,
DC,
FC,
F5,
FC,
05,
08,
F5,
FB,
09,
03,
0E,
05,
17,
1C,
FA,
0D,
15,
FC,
F2,
F0,
E9,
00,
FF,
02,
00,
FE,
04,
15,
27,
31,
1C,
0E,
04,
0B,
14,
1A,
14,
0A,
18,
13,
28,
32,
1E,
17,
0B,
12,
0A,
F7,
03,
F7,
04,
FE,
FF,
FD,
04,
FE,
F2,
F0,
06,
05,
06,
10,
1B,
27,
1A,
10,
33,
1C,
12,
17,
18,
05,
FA,
00,
FE,
01,
FF,
03,
FE,
FE;
