memory_initialization_radix=16;
memory_initialization_vector=
01,
03,
02,
FF,
FC,
02,
01,
03,
FE,
03,
01,
04,
FB,
FB,
04,
00,
03,
FE,
FD,
FD,
00,
FE,
00,
04,
00,
04,
FD,
00,
02,
03,
01,
FF,
00,
00,
FF,
02,
F7,
FF,
FE,
F0,
EE,
F9,
FE,
F4,
FD,
FF,
F3,
FF,
FC,
FA,
FE,
04,
01,
FF,
01,
03,
FE,
FE,
00,
06,
FC,
FC,
00,
F0,
0B,
16,
15,
F9,
FD,
E8,
EE,
EB,
E4,
DE,
E2,
EA,
F4,
F6,
F5,
00,
06,
04,
FF,
02,
01,
FC,
0F,
0F,
11,
1B,
14,
06,
28,
32,
2A,
23,
26,
0D,
05,
04,
FA,
FD,
F9,
EA,
01,
0A,
07,
13,
21,
0A,
03,
03,
FC,
08,
17,
22,
11,
0A,
29,
33,
1F,
24,
23,
2F,
26,
0E,
1C,
1D,
03,
0A,
13,
FF,
02,
05,
08,
F7,
FE,
EF,
18,
FD,
FE,
FF,
06,
23,
10,
FC,
0A,
15,
09,
04,
17,
2E,
2A,
26,
21,
29,
22,
1F,
25,
0F,
14,
09,
FF,
EF,
08,
2B,
24,
00,
FC,
08,
FA,
01,
FE,
F3,
0A,
04,
16,
1F,
24,
2E,
2C,
38,
43,
44,
3B,
24,
18,
03,
FC,
F9,
FD,
0B,
02,
0B,
12,
07,
FE,
0E,
F3,
EC,
0A,
F4,
0B,
07,
21,
16,
20,
1D,
2D,
35,
36,
20,
13,
FB,
FF,
EE,
E9,
F1,
F4,
EB,
E4,
F1,
07,
0B,
03,
FB,
EE,
F8,
0F,
FB,
0D,
00,
12,
0A,
09,
02,
02,
FE,
FB,
F3,
FC,
F8,
04,
04,
EF,
F4,
F8,
E6,
E9,
09,
12,
08,
FC,
FA,
0A,
0A,
08,
03,
08,
FA,
01,
F7,
F4,
E2,
DA,
D0,
D9,
EC,
F3,
08,
17,
0D,
FE,
F8,
F6,
02,
DE,
0F,
23,
0C,
FA,
F7,
FC,
0D,
F6,
00,
0B,
01,
FA,
E4,
E9,
DA,
CB,
C3,
E1,
E1,
09,
0E,
1E,
0E,
07,
0B,
13,
09,
E8,
16,
04,
EA,
FE,
F6,
E7,
FD,
03,
EB,
FE,
F4,
EC,
E1,
E4,
E3,
E2,
F9,
05,
02,
03,
15,
09,
05,
09,
03,
F4,
F1,
EC,
FF,
04,
EE,
F9,
F3,
E6,
FB,
F4,
E0,
E8,
F5,
F1,
F4,
F7,
F0,
FF,
0C,
11,
02,
02,
01,
F6,
06,
06,
FA,
DD,
EE,
DF,
D6,
02,
F4,
F1,
F4,
E0,
00,
DF,
EA,
EA,
04,
FF,
F8,
F9,
FB,
0D,
0B,
01,
00,
FE,
FD,
FE,
09,
0D,
FC,
00,
F7,
E8,
E2,
03,
00,
F7,
FB,
E1,
05,
EB,
DF,
03,
05,
04,
FA,
F6,
F6,
F7,
FF,
FD,
04,
FB,
F5,
01,
FE,
07,
04,
06,
06,
FA,
EF,
00,
05,
FC,
03,
F0,
1B,
01,
FE,
08,
F7,
F8,
FA,
F8,
F3,
F3,
FC,
F9,
03,
05,
FA,
F7,
FC,
F8,
05,
0E,
05,
05,
EB,
FE,
14,
03,
05,
12,
30,
17,
03,
F4,
E9,
EC,
F4,
FB,
EB,
F3,
F8,
FC,
F9,
FA,
FD,
03,
FD,
07,
0E,
0B,
FC,
F4,
EA,
FB,
14,
02,
09,
FA,
1F,
1D,
06,
01,
E7,
EF,
F0,
FB,
EE,
F3,
FA,
F6,
03,
F7,
FD,
F0,
FA,
FA,
FC,
E9,
ED,
E0,
FF,
EB,
11,
15,
07,
FF,
0B,
08,
10,
0B,
ED,
F4,
F8,
09,
F4,
E4,
F0,
F5,
F6,
03,
F7,
F5,
02,
09,
F2,
F2,
F4,
EE,
F7,
F5,
FC,
F4,
FC,
01,
F6,
06,
14,
05,
FD,
F9,
F5,
02,
F3,
F9,
0C,
F4,
F5,
02,
03,
09,
0B,
09,
F2,
EC,
F6,
F3,
EF,
04,
F8,
01,
08,
00,
0E,
0B,
2A,
12,
04,
06,
FD,
FE,
F5,
FE,
09,
FB,
00,
09,
02,
07,
0D,
0D,
FC,
EF,
03,
FD,
01,
FB,
E6,
F0,
08,
13,
0A,
FE,
FF,
0E,
17,
06,
03,
07,
09,
02,
06,
00,
04,
16,
07,
FF,
0E,
0B,
08,
FF,
14,
0B,
18,
14,
FF,
ED,
FC,
19,
21,
04,
F6,
10,
1E,
1D,
1E,
19,
15,
0F,
07,
12,
06,
0F,
0B,
05,
00,
0C,
F3,
FC,
17,
21,
FF,
DE,
01,
04,
00,
25,
36,
04,
12,
04,
0F,
1D,
0F,
22,
28,
11,
17,
16,
17,
11,
12,
09,
01,
12,
10,
1B,
2A,
2A,
FB,
E0,
FE,
01,
FD,
F8,
14,
02,
04,
03,
0E,
08,
FE,
14,
13,
0F,
14,
0F,
1D,
19,
18,
1B,
0B,
11,
15,
23,
2D,
32,
13,
FF,
03,
FE,
FF,
17,
EB,
E3,
10,
23,
11,
0D,
0A,
1A,
08,
11,
13,
15,
12,
0C,
0C,
09,
17,
1F,
19,
FD,
0D,
10,
0B,
04,
FF,
FC,
FE,
00,
03,
F7,
1D,
18,
F4,
EF,
0E,
1E,
1B,
14,
1B,
0A,
FA,
FA,
02,
08,
FE,
19,
2D,
18,
17,
09,
00,
04,
03,
00,
02,
00,
04,
00,
FA,
FA,
FF,
F7,
F8,
F2,
F9,
F4,
F0,
FB,
F7,
00,
FD,
F6,
00,
01,
FE,
01,
F8,
FE,
03,
FC,
FC;
