memory_initialization_radix=16;
memory_initialization_vector=
01,
00,
02,
FF,
02,
FF,
FE,
04,
03,
04,
00,
02,
FE,
FD,
FE,
01,
FC,
FD,
03,
FE,
00,
01,
FE,
04,
FF,
04,
03,
FC,
FD,
03,
04,
01,
FD,
FD,
FF,
FF,
FE,
FD,
00,
F4,
F7,
F9,
07,
01,
DC,
DD,
F6,
F2,
F2,
FA,
FB,
FB,
FD,
03,
01,
02,
02,
00,
04,
F1,
F5,
FE,
06,
FC,
F9,
E9,
EC,
EF,
F0,
E6,
E7,
DE,
D7,
EC,
E3,
C6,
DA,
E0,
E4,
EF,
F1,
EB,
00,
03,
FC,
00,
1A,
FF,
04,
E4,
00,
02,
E9,
E7,
D2,
E5,
F2,
CB,
CE,
CE,
D2,
FE,
07,
EA,
F0,
DC,
EE,
D7,
D3,
0C,
FC,
01,
03,
FF,
20,
1B,
FF,
E6,
FA,
F0,
E1,
CB,
C2,
F7,
E9,
E6,
E6,
E6,
E5,
E8,
EE,
E5,
E9,
EA,
E7,
EE,
E5,
F9,
F6,
E2,
00,
01,
0D,
01,
F9,
ED,
E7,
E7,
F5,
F0,
EA,
ED,
E1,
DC,
EB,
E6,
E0,
DD,
D0,
D4,
E5,
D8,
E1,
EC,
E3,
DD,
E7,
EC,
03,
ED,
EC,
EF,
06,
06,
03,
FD,
F1,
EF,
E9,
F2,
EA,
F8,
09,
F8,
F1,
EE,
FD,
EF,
F3,
F5,
00,
01,
07,
E8,
00,
ED,
02,
EE,
F8,
0B,
06,
0E,
05,
F9,
F6,
01,
F5,
EE,
FE,
0F,
0A,
FD,
0D,
0C,
01,
FD,
02,
FD,
11,
10,
FE,
EC,
04,
EB,
DE,
FB,
00,
12,
12,
17,
0C,
13,
0D,
09,
EC,
E1,
FF,
03,
05,
04,
0C,
20,
1C,
0D,
01,
06,
02,
02,
0D,
00,
F1,
09,
0B,
18,
F8,
E5,
08,
FC,
02,
06,
0D,
02,
ED,
ED,
03,
17,
14,
1C,
20,
24,
2A,
1F,
06,
F7,
FD,
F2,
19,
0F,
00,
1B,
0B,
03,
02,
E0,
EE,
E6,
F0,
F2,
12,
03,
F5,
FF,
16,
2E,
2D,
29,
28,
16,
23,
29,
11,
0A,
05,
0A,
33,
3D,
18,
05,
0A,
E8,
20,
01,
F5,
D0,
E0,
F3,
1B,
FA,
F8,
13,
1E,
33,
27,
25,
13,
08,
10,
03,
01,
FF,
0B,
1B,
2A,
23,
0C,
20,
08,
07,
16,
0B,
E6,
C5,
DF,
0F,
12,
FC,
03,
11,
14,
18,
1E,
1E,
04,
FF,
01,
E7,
E8,
D8,
E6,
FA,
08,
21,
1C,
20,
10,
05,
10,
04,
FD,
E4,
01,
12,
04,
05,
0E,
10,
0E,
08,
13,
05,
01,
FA,
EB,
DB,
D3,
E2,
CB,
E3,
08,
19,
EB,
E4,
02,
05,
0C,
0A,
0A,
07,
FB,
02,
04,
14,
14,
08,
02,
03,
03,
01,
00,
F7,
FB,
EC,
EC,
EA,
DE,
E1,
07,
01,
D4,
E8,
01,
FC,
EB,
0F,
24,
0F,
10,
FE,
03,
0B,
17,
0D,
10,
08,
03,
04,
FD,
07,
01,
DC,
EC,
F5,
F4,
03,
FD,
DA,
D0,
E2,
FE,
F5,
EF,
03,
19,
1D,
05,
EA,
FC,
FC,
11,
05,
0B,
0C,
F8,
FE,
04,
FD,
EA,
E8,
F5,
F0,
EC,
EA,
DF,
B9,
D2,
E7,
04,
09,
FD,
EC,
03,
18,
0A,
FE,
FA,
07,
08,
01,
FE,
0E,
09,
0B,
FE,
F2,
E7,
E6,
F8,
DF,
EE,
F8,
00,
0B,
FD,
F7,
1C,
0F,
16,
D0,
F2,
03,
EF,
F9,
F7,
F6,
F7,
07,
07,
0D,
0E,
F7,
EB,
E9,
E1,
E5,
F6,
D7,
EB,
F4,
DD,
01,
25,
1C,
0F,
1C,
15,
B6,
DD,
F0,
EF,
F4,
EA,
E9,
E6,
F9,
0D,
0F,
0A,
F2,
E1,
DE,
DD,
EC,
DB,
E7,
E3,
DA,
E6,
0F,
01,
1D,
01,
12,
EC,
B9,
C8,
F7,
F6,
E8,
E6,
E9,
ED,
F3,
0A,
09,
03,
ED,
ED,
E2,
E4,
E6,
E8,
F2,
00,
F6,
03,
13,
06,
1A,
12,
F0,
E7,
CB,
DE,
F6,
F0,
F3,
E8,
F6,
F6,
F1,
00,
00,
01,
F8,
DB,
E0,
E6,
E5,
F7,
FF,
F9,
FD,
09,
1B,
E0,
FD,
14,
FF,
E3,
03,
F1,
EB,
01,
09,
03,
0A,
0F,
02,
05,
FF,
0E,
F0,
E6,
FB,
E8,
ED,
FB,
FC,
F9,
13,
1D,
FB,
FE,
04,
01,
02,
D6,
F2,
04,
08,
FC,
06,
08,
12,
11,
FE,
01,
F1,
F9,
EB,
F1,
F3,
E9,
E4,
F0,
EA,
10,
1A,
0B,
FE,
14,
02,
02,
04,
E8,
F3,
02,
13,
E9,
FF,
03,
FE,
FC,
F1,
EE,
F0,
F2,
F7,
E0,
F2,
E5,
D5,
E6,
DE,
F3,
25,
10,
F5,
FF,
01,
FD,
FE,
05,
1A,
13,
00,
DE,
F7,
FD,
01,
F5,
FC,
F7,
EF,
00,
00,
FA,
F8,
EB,
EA,
EF,
FF,
0B,
36,
21,
F8,
F6,
FD,
03,
02,
FE,
07,
FC,
03,
FF,
09,
08,
1B,
0D,
0C,
10,
15,
1A,
18,
17,
0B,
03,
0E,
24,
26,
0C,
F9,
FC,
0F,
FE,
FF,
FE,
FD,
FD,
FD,
13,
24,
17,
1B,
1C,
20,
30,
21,
17,
1C,
35,
1D,
1B,
15,
23,
18,
01,
F8,
F6,
FE,
02,
FC,
00,
00;
