memory_initialization_radix=16;
memory_initialization_vector=
03,
01,
00,
FD,
FE,
02,
FC,
00,
FD,
04,
FD,
FE,
F9,
FA,
FB,
00,
01,
00,
02,
FC,
02,
02,
FE,
FE,
02,
03,
FD,
00,
FC,
FE,
FD,
01,
FF,
FC,
F0,
F5,
F4,
F6,
E9,
FA,
FC,
06,
04,
F7,
0D,
0C,
EC,
ED,
E7,
F0,
F3,
F2,
FD,
FD,
00,
FC,
FF,
03,
FE,
1C,
12,
F6,
EA,
EE,
D8,
CA,
D4,
E0,
EF,
D8,
DA,
D4,
DA,
D4,
CE,
DD,
F0,
EB,
EE,
E5,
F0,
FD,
00,
FF,
FD,
01,
F0,
0F,
D9,
03,
E1,
E9,
F4,
EF,
F8,
02,
FC,
FA,
15,
0C,
14,
18,
FD,
EE,
02,
DF,
E7,
F6,
03,
F9,
E4,
02,
02,
0A,
07,
EC,
F6,
F4,
D6,
F2,
FC,
FA,
F7,
06,
12,
16,
0B,
14,
16,
09,
FC,
FF,
01,
FD,
09,
EF,
EC,
E2,
E9,
09,
03,
FD,
ED,
E6,
F5,
15,
0A,
F6,
FB,
FD,
FE,
03,
0E,
19,
15,
1C,
0F,
05,
04,
09,
F6,
F2,
F5,
EE,
E3,
FB,
D8,
F9,
01,
F9,
0E,
10,
F5,
10,
FD,
F4,
EC,
F4,
03,
06,
03,
0A,
0A,
0D,
12,
19,
16,
11,
08,
16,
04,
FB,
E9,
E3,
E3,
F3,
05,
11,
1A,
17,
E2,
F2,
00,
FC,
E9,
FA,
01,
FB,
FE,
F8,
F6,
0A,
0D,
18,
22,
1D,
12,
0A,
0E,
0E,
0A,
F4,
DC,
EB,
1B,
06,
14,
11,
E5,
F5,
04,
01,
08,
00,
06,
F6,
F2,
F2,
04,
15,
18,
09,
1F,
1D,
13,
18,
1B,
0C,
04,
FC,
F3,
F3,
0D,
19,
02,
15,
EC,
FB,
15,
0B,
08,
03,
00,
F4,
F3,
05,
10,
04,
FE,
07,
07,
1A,
23,
1E,
1B,
16,
01,
E6,
E3,
11,
0A,
09,
17,
12,
04,
08,
15,
15,
06,
FE,
F4,
F2,
ED,
0C,
15,
F4,
00,
06,
09,
12,
1F,
16,
28,
1A,
F1,
D9,
E2,
11,
12,
1D,
27,
21,
FE,
06,
06,
16,
0B,
F4,
FD,
FD,
F9,
07,
04,
F6,
EF,
05,
00,
09,
20,
0E,
1A,
0E,
FB,
DB,
F5,
FB,
07,
0F,
1A,
12,
0F,
18,
18,
0E,
FC,
F8,
FB,
F8,
F7,
F5,
F3,
F5,
EF,
F2,
08,
0E,
13,
0D,
0B,
12,
FF,
DA,
E0,
E7,
FF,
08,
1A,
14,
21,
0F,
11,
11,
0E,
01,
FB,
F1,
E4,
E1,
EE,
E9,
EA,
F7,
13,
10,
14,
10,
10,
FD,
00,
EE,
E2,
E7,
F8,
0A,
16,
05,
14,
11,
0E,
18,
15,
10,
01,
F4,
F8,
F3,
F3,
F2,
E1,
06,
18,
2A,
19,
0F,
07,
0C,
06,
FA,
F3,
F3,
F9,
0A,
F2,
F5,
01,
0B,
10,
16,
10,
04,
04,
F7,
F2,
EF,
F1,
FD,
EE,
0E,
16,
24,
1C,
0E,
1E,
14,
04,
DD,
00,
EC,
0F,
0E,
06,
E9,
14,
0F,
0E,
15,
0C,
0E,
02,
FB,
F7,
F2,
FC,
FB,
F8,
13,
15,
11,
19,
06,
0A,
06,
09,
C4,
F8,
0F,
04,
0D,
02,
FA,
11,
07,
04,
15,
03,
07,
FD,
F9,
FE,
06,
02,
F7,
FE,
10,
0B,
10,
06,
01,
0B,
07,
0A,
D9,
EF,
1A,
16,
18,
1A,
FA,
FD,
FF,
00,
05,
09,
00,
F7,
00,
F9,
00,
03,
00,
06,
0B,
08,
07,
FE,
03,
09,
FB,
F5,
C8,
E6,
E6,
F0,
24,
FB,
07,
FE,
08,
04,
0A,
04,
01,
F7,
F8,
0A,
0C,
0A,
FA,
F6,
01,
04,
0C,
00,
00,
F5,
E8,
05,
CE,
ED,
E9,
00,
1A,
EC,
0D,
FF,
0A,
03,
05,
FE,
F6,
F9,
FE,
06,
0C,
08,
F9,
ED,
FB,
F6,
03,
FD,
F0,
E7,
E7,
12,
EF,
FA,
FB,
F0,
F5,
F8,
0A,
FA,
FB,
01,
FF,
FE,
EE,
F8,
00,
09,
00,
F9,
EE,
FC,
F4,
F4,
F5,
F0,
E6,
F4,
E6,
02,
EE,
14,
04,
EF,
04,
03,
EF,
F7,
F9,
12,
0C,
07,
F9,
03,
FF,
0E,
05,
FF,
00,
FE,
F7,
F3,
F6,
F2,
EF,
06,
F2,
FE,
00,
E1,
02,
FE,
FD,
F1,
F3,
F2,
F9,
0B,
19,
03,
F4,
FF,
02,
FA,
F6,
FE,
03,
F3,
FF,
F1,
E4,
E7,
E0,
EC,
EB,
01,
F1,
CE,
FD,
01,
FE,
15,
1B,
37,
32,
1C,
17,
01,
F6,
FF,
FF,
FD,
FD,
F9,
00,
EE,
E3,
C7,
D6,
F7,
F3,
F5,
F5,
E8,
F8,
FB,
FD,
FD,
FC,
FC,
F5,
1D,
1D,
06,
0D,
09,
07,
1A,
19,
06,
FD,
0B,
F9,
F0,
D4,
D2,
EC,
F7,
F6,
EB,
E4,
E7,
01,
F9,
01,
00,
03,
FF,
04,
EF,
F9,
03,
22,
2B,
2F,
20,
01,
FA,
18,
27,
0F,
1B,
14,
18,
11,
13,
2E,
2B,
13,
1C,
05,
FF,
00,
03,
FF,
02,
04,
0D,
1C,
13,
13,
1B,
17,
16,
07,
07,
14,
1F,
13,
21,
32,
27,
1F,
15,
1D,
24,
16,
01,
FE,
00,
00;
