memory_initialization_radix=16;
memory_initialization_vector=
03,
00,
01,
FD,
01,
04,
03,
03,
FC,
FC,
FE,
FD,
FC,
FC,
FF,
01,
04,
00,
FE,
00,
00,
02,
FF,
FC,
FF,
FF,
01,
02,
02,
04,
01,
01,
FF,
FE,
F5,
F1,
F2,
F6,
F4,
E9,
EB,
E7,
F4,
E8,
E7,
EF,
FC,
F5,
FD,
FB,
F6,
F5,
FE,
FD,
02,
01,
03,
01,
FD,
E2,
E0,
FF,
F7,
EE,
EB,
E8,
E2,
E0,
DD,
EA,
DE,
E7,
F3,
F7,
F4,
F4,
F1,
F4,
F8,
F2,
F3,
FD,
00,
02,
03,
FE,
FC,
E0,
E3,
F0,
E8,
EE,
DC,
D2,
EE,
03,
F5,
E4,
D5,
E1,
F3,
F8,
E3,
E8,
F0,
01,
03,
F1,
EC,
F7,
FD,
03,
01,
FF,
FE,
FF,
F4,
EC,
F1,
F8,
EF,
00,
0A,
15,
10,
0C,
08,
04,
FB,
EB,
E3,
EF,
ED,
FC,
F2,
F3,
F7,
F4,
F4,
F1,
FF,
01,
FB,
EC,
E5,
F5,
ED,
EA,
F0,
09,
0F,
EE,
EA,
E4,
E8,
E0,
ED,
01,
F5,
F6,
01,
09,
06,
FF,
FE,
00,
ED,
0B,
00,
FF,
20,
13,
16,
26,
FF,
E8,
F2,
05,
FC,
F3,
EF,
E2,
E4,
D7,
DA,
EE,
F2,
F5,
EF,
F7,
0D,
05,
FE,
03,
19,
FC,
04,
1C,
24,
32,
03,
0F,
FB,
F8,
00,
0E,
12,
04,
F3,
E8,
E2,
DD,
E8,
F8,
FC,
FA,
FB,
08,
13,
15,
11,
13,
2F,
02,
FB,
1A,
25,
1B,
00,
0E,
FA,
00,
07,
1E,
1F,
0D,
01,
F1,
EE,
F8,
00,
07,
0E,
09,
17,
22,
1A,
21,
26,
27,
0E,
0B,
0C,
22,
05,
02,
10,
FE,
FB,
07,
10,
1A,
11,
1B,
14,
FB,
F8,
FC,
12,
19,
22,
13,
16,
26,
1E,
24,
25,
28,
FF,
16,
11,
15,
15,
F3,
FD,
FA,
F1,
01,
12,
16,
23,
21,
15,
F7,
DF,
00,
0F,
16,
25,
21,
1B,
1C,
24,
08,
0C,
1B,
1E,
19,
11,
12,
16,
01,
EE,
FB,
F8,
FA,
0A,
19,
1E,
28,
0C,
E5,
D1,
F3,
09,
18,
15,
0C,
02,
00,
0B,
FB,
F0,
1A,
2A,
05,
03,
18,
05,
F8,
DC,
F4,
FF,
16,
1E,
15,
29,
30,
10,
DD,
C5,
ED,
0B,
05,
05,
F7,
F6,
F0,
02,
DA,
EE,
13,
24,
FB,
00,
0F,
1D,
F4,
E5,
08,
0E,
18,
1F,
1C,
28,
20,
F5,
C8,
CE,
F3,
06,
00,
04,
EF,
02,
F6,
F6,
E5,
EF,
F5,
0B,
F8,
02,
0C,
26,
F7,
00,
18,
13,
16,
18,
18,
1C,
04,
E2,
D5,
ED,
FB,
FC,
02,
F8,
03,
F7,
FE,
0E,
1B,
0C,
DB,
EF,
FA,
07,
FF,
1A,
0B,
04,
08,
0F,
12,
0F,
14,
0C,
F9,
E7,
DD,
EC,
FB,
F2,
FB,
FE,
F9,
F5,
08,
0A,
1A,
E8,
CF,
E1,
FD,
00,
FC,
08,
0A,
05,
07,
00,
0C,
06,
04,
FA,
DC,
DB,
E6,
F3,
07,
F9,
F9,
FA,
02,
FE,
0D,
F8,
01,
F7,
DD,
DC,
F3,
FF,
01,
1A,
FF,
1D,
01,
FE,
F7,
F8,
F9,
EF,
DC,
CE,
E1,
FE,
03,
01,
FE,
0D,
F5,
04,
FC,
FB,
08,
07,
01,
E6,
EF,
04,
01,
1B,
F7,
0F,
F7,
F0,
F2,
F3,
EE,
DA,
CE,
D7,
F1,
FF,
F7,
FE,
F9,
FC,
F6,
FB,
F1,
E7,
FC,
17,
03,
01,
FA,
03,
16,
08,
FB,
04,
F6,
F7,
EA,
F8,
F2,
D7,
D3,
D5,
F6,
04,
F7,
EE,
F1,
F8,
EF,
ED,
D5,
D5,
ED,
0A,
02,
FF,
FC,
01,
05,
07,
E3,
D5,
DA,
EB,
F4,
ED,
F8,
F1,
FA,
F8,
FB,
F7,
EE,
F5,
FD,
02,
00,
E7,
DD,
E1,
E8,
05,
E2,
00,
03,
FD,
FE,
F3,
E6,
D5,
E5,
E4,
F4,
F6,
FE,
FF,
00,
FF,
FF,
F6,
F2,
FA,
00,
09,
01,
F7,
03,
05,
0B,
1E,
FE,
FA,
00,
FE,
FD,
F5,
FC,
E6,
DE,
FC,
04,
0C,
0C,
0A,
01,
F8,
06,
FD,
07,
02,
0A,
08,
0D,
01,
15,
08,
10,
1D,
02,
14,
04,
00,
02,
F9,
0E,
FB,
03,
0E,
0F,
0D,
1C,
15,
FC,
FF,
08,
10,
03,
0D,
09,
07,
0B,
01,
12,
F5,
FE,
07,
F9,
18,
FD,
04,
FF,
00,
02,
E5,
02,
0D,
10,
02,
10,
05,
F7,
FA,
0B,
06,
FB,
FF,
16,
05,
00,
FC,
09,
09,
F8,
06,
FD,
FB,
FF,
00,
FC,
E6,
0C,
06,
EE,
F7,
F5,
F9,
FD,
F9,
FB,
F6,
0F,
04,
0C,
0A,
08,
0B,
EE,
ED,
0E,
1C,
19,
0E,
F2,
FD,
FD,
FF,
FC,
01,
03,
E4,
D5,
DB,
DD,
E9,
E6,
E8,
EE,
02,
FB,
E7,
01,
F8,
EC,
E9,
F7,
EF,
F8,
05,
EC,
E7,
11,
FF,
01,
04,
FD,
01,
FF,
22,
35,
F5,
EE,
F3,
08,
05,
F9,
FC,
15,
EA,
ED,
F4,
0A,
F4,
F8,
02,
1D,
1A,
23,
00,
FE,
03,
FF;
