memory_initialization_radix=16;
memory_initialization_vector=
01,
01,
FE,
01,
00,
03,
01,
03,
03,
00,
00,
02,
FA,
FE,
03,
FC,
FE,
00,
FD,
01,
01,
01,
FF,
00,
FC,
00,
03,
02,
02,
FD,
02,
00,
FB,
FB,
F1,
F4,
F5,
FC,
00,
02,
E8,
EE,
EB,
E6,
FB,
FA,
E9,
ED,
F1,
FD,
F7,
FC,
00,
00,
04,
03,
FE,
03,
FC,
F7,
FB,
F8,
F7,
F1,
09,
20,
19,
10,
13,
FD,
FC,
E7,
E7,
F4,
06,
EB,
F0,
F4,
E8,
01,
00,
04,
02,
01,
FD,
01,
E6,
04,
1B,
FD,
07,
0E,
FE,
FD,
05,
0C,
12,
04,
06,
FF,
FA,
04,
0A,
07,
05,
02,
F9,
DA,
FB,
13,
16,
03,
FE,
F7,
E6,
F3,
F4,
F9,
0A,
04,
FD,
02,
01,
10,
06,
07,
0D,
07,
00,
FB,
0B,
01,
00,
FE,
FD,
07,
11,
1B,
15,
09,
00,
FF,
EF,
13,
F2,
EB,
E8,
E8,
E2,
EC,
03,
1A,
0D,
04,
03,
08,
0F,
04,
0C,
06,
0B,
F6,
FF,
09,
00,
FA,
0F,
06,
00,
15,
0C,
F1,
F3,
EF,
E2,
DF,
EC,
F2,
EE,
F3,
F9,
F9,
FE,
FB,
0A,
06,
13,
14,
07,
FE,
02,
FE,
16,
0F,
14,
F1,
02,
1E,
0C,
F0,
F7,
F5,
EC,
E3,
FC,
E8,
E5,
F7,
ED,
F3,
FA,
FD,
08,
03,
06,
0A,
07,
07,
04,
03,
01,
0B,
23,
F6,
13,
07,
00,
F9,
00,
F8,
F5,
ED,
F4,
EA,
F0,
F4,
EB,
EC,
FC,
FF,
07,
04,
00,
07,
09,
10,
07,
16,
11,
12,
13,
05,
02,
FD,
06,
F6,
01,
F9,
FA,
F7,
EC,
DF,
F2,
EE,
F1,
ED,
F2,
F9,
FF,
FA,
03,
F9,
05,
F6,
05,
0A,
15,
1C,
05,
0A,
FF,
F9,
01,
FE,
F3,
03,
FD,
01,
F4,
EF,
EC,
F7,
00,
FF,
F2,
E8,
F3,
F3,
F4,
F4,
F1,
E2,
F1,
FC,
14,
1A,
0E,
07,
FC,
F9,
F1,
F3,
F7,
FB,
FB,
01,
05,
F0,
F9,
FA,
08,
FE,
F4,
EC,
EB,
EE,
F2,
F5,
E1,
D2,
DE,
E4,
E4,
F3,
00,
FD,
FF,
FB,
F5,
F8,
FA,
F2,
EC,
EC,
F8,
F4,
FE,
0A,
15,
14,
0A,
F7,
EA,
F7,
00,
02,
E5,
CF,
C3,
CB,
DC,
E0,
05,
01,
03,
FE,
F4,
04,
FF,
04,
F4,
03,
02,
FB,
04,
0A,
17,
0F,
0A,
F8,
FD,
04,
0C,
14,
00,
E0,
D3,
E2,
EE,
F8,
04,
06,
05,
F9,
EE,
1B,
FC,
F2,
07,
11,
04,
F9,
F7,
FA,
05,
FB,
F9,
F2,
FD,
0B,
12,
0A,
04,
E7,
E4,
FC,
01,
10,
16,
07,
05,
FC,
F6,
18,
FD,
06,
02,
EE,
F2,
F0,
F4,
F3,
01,
F3,
EF,
F1,
06,
0E,
13,
10,
11,
FE,
E4,
08,
1A,
1A,
25,
0E,
FA,
FC,
F5,
16,
FD,
FB,
F3,
E9,
DA,
D2,
E4,
F6,
01,
F8,
E9,
F8,
0B,
1C,
19,
0C,
17,
0C,
08,
F9,
0E,
29,
1A,
18,
03,
F7,
FE,
0F,
F5,
F8,
FB,
F8,
F0,
E8,
E5,
EC,
DC,
E7,
F0,
02,
0F,
13,
1E,
09,
08,
06,
FD,
EB,
E5,
11,
FF,
19,
F5,
EB,
F3,
02,
0D,
FD,
0D,
14,
14,
00,
FD,
F1,
EE,
F4,
07,
0B,
16,
0C,
0B,
06,
F7,
F9,
F3,
E7,
F6,
0E,
FA,
14,
FA,
F2,
11,
F8,
04,
05,
0C,
08,
0D,
06,
0E,
0C,
16,
23,
1F,
19,
03,
FF,
FF,
F5,
F1,
F0,
F1,
EE,
F6,
00,
04,
14,
FC,
F2,
1D,
0A,
03,
14,
0C,
10,
14,
19,
1B,
1D,
1C,
1D,
13,
0B,
07,
FA,
F5,
F5,
F4,
F9,
EC,
F5,
FF,
FE,
FC,
F0,
F4,
03,
19,
03,
F8,
00,
FA,
0D,
0F,
1A,
1B,
13,
19,
0F,
06,
02,
FF,
FA,
F4,
F9,
F9,
02,
00,
0B,
01,
12,
15,
02,
F9,
F8,
17,
10,
F8,
01,
F6,
09,
0B,
17,
10,
0E,
06,
01,
FE,
FF,
06,
06,
02,
07,
09,
FF,
08,
15,
0D,
08,
11,
FE,
01,
01,
1D,
1E,
15,
19,
0B,
03,
10,
0A,
0D,
08,
00,
F9,
03,
03,
06,
0E,
13,
FC,
FD,
01,
0F,
0F,
19,
09,
11,
03,
FC,
00,
F5,
0A,
14,
10,
F8,
FE,
08,
0B,
F7,
F0,
FD,
01,
FE,
F5,
FA,
0C,
1A,
06,
0B,
0B,
0A,
09,
10,
09,
06,
00,
FE,
FC,
06,
FF,
03,
0C,
EE,
EA,
DD,
E6,
D3,
D2,
D1,
E9,
ED,
EB,
EB,
FA,
11,
0C,
0C,
01,
0C,
0F,
0D,
01,
07,
00,
FC,
04,
01,
07,
11,
0D,
08,
F8,
E0,
E1,
E2,
EE,
F1,
F9,
F8,
F5,
F4,
EF,
EB,
F2,
FC,
FF,
05,
03,
FC,
FA,
00,
FE,
FF,
FF,
02,
01,
00,
F8,
F8,
FB,
FA,
F8,
FA,
FA,
00,
F5,
F2,
FC,
F0,
F0,
F2,
F8,
01,
FA,
FA,
FE,
02,
FC,
FD,
FE;
