memory_initialization_radix=16;
memory_initialization_vector=
13,
08,
F1,
AB,
07,
F2,
C1,
00,
EB,
E4,
0C,
F9,
B5,
FD,
F4,
BE,
BB,
FF,
29,
1D,
01,
12,
0A,
06,
1D,
E4,
08,
17,
F3,
01,
1C,
BF,
F5,
0B,
FC,
FF,
0C,
15,
FB,
F8,
FF,
10,
F0,
01,
C9,
E2,
09,
09,
E0,
E3,
18,
0F,
DB,
AB,
F7,
14,
1B,
18,
0C,
14,
EF,
FA,
F4,
0D;
