memory_initialization_radix=16;
memory_initialization_vector=
FF,
04,
03,
FF,
00,
FC,
00,
FF,
00,
FE,
00,
FD,
0B,
04,
02,
FF,
FF,
FF,
FF,
00,
FD,
FD,
00,
00,
00,
FC,
FD,
02,
FC,
02,
01,
04,
06,
05,
15,
16,
0C,
13,
13,
13,
2B,
0F,
E1,
F2,
1D,
2B,
1E,
21,
1A,
16,
17,
0F,
FF,
00,
FC,
00,
01,
00,
02,
11,
10,
0D,
16,
21,
23,
1F,
1D,
26,
0E,
F2,
08,
04,
F7,
F7,
08,
F4,
FC,
0B,
16,
13,
05,
02,
FE,
FC,
FD,
04,
E4,
08,
1D,
21,
2A,
24,
20,
11,
FD,
0B,
08,
0D,
12,
08,
05,
F3,
F5,
05,
FC,
FB,
0A,
FF,
FB,
00,
01,
FD,
FF,
02,
E9,
F6,
19,
17,
14,
0A,
1C,
18,
13,
08,
FE,
FA,
F2,
F2,
F8,
01,
F1,
FC,
F0,
DF,
DB,
DD,
E5,
05,
01,
FE,
01,
02,
EE,
FD,
20,
F6,
F4,
07,
0D,
06,
FE,
F8,
FF,
02,
F7,
F6,
0D,
09,
F2,
F7,
EA,
E7,
F3,
F0,
F1,
21,
15,
07,
03,
0D,
20,
1B,
2A,
03,
FB,
01,
FE,
0D,
01,
FC,
02,
FC,
04,
14,
1B,
11,
05,
F0,
E8,
EC,
E2,
E4,
DC,
05,
0C,
0F,
01,
12,
21,
2C,
1F,
FB,
0A,
11,
13,
0C,
FA,
03,
08,
0C,
0F,
21,
0E,
FA,
F7,
E3,
E2,
E8,
DB,
CE,
DB,
F9,
FC,
01,
E3,
04,
0A,
13,
29,
0F,
0D,
11,
13,
FE,
15,
20,
17,
1E,
25,
15,
07,
F0,
FB,
09,
F1,
EA,
F2,
DB,
E2,
FC,
0E,
05,
07,
19,
07,
1B,
24,
24,
0D,
16,
11,
15,
1E,
12,
17,
17,
10,
EC,
EC,
ED,
F3,
03,
02,
FB,
FA,
F0,
EC,
0C,
19,
17,
08,
09,
FE,
16,
19,
1F,
24,
24,
1E,
15,
16,
03,
F8,
F1,
E1,
D7,
E4,
F1,
FF,
0A,
04,
01,
FC,
05,
F5,
02,
F0,
13,
05,
05,
F9,
01,
0D,
15,
22,
18,
0B,
07,
F6,
FA,
EF,
DC,
D0,
DD,
F6,
08,
0D,
11,
19,
03,
0E,
0C,
0A,
00,
E5,
03,
FE,
05,
00,
F6,
04,
FA,
FB,
F5,
E9,
DE,
E6,
DE,
C7,
C0,
E6,
FE,
12,
18,
18,
14,
17,
03,
0B,
10,
04,
F7,
EB,
06,
EC,
04,
09,
05,
E9,
ED,
EC,
DB,
D8,
E0,
EA,
EF,
C0,
E2,
F2,
03,
1A,
0D,
0E,
19,
09,
05,
15,
23,
01,
FD,
F7,
17,
F8,
01,
09,
01,
EA,
E1,
E7,
E4,
E1,
E3,
FB,
01,
EA,
FF,
FD,
12,
0D,
02,
0F,
0C,
03,
06,
18,
25,
02,
F8,
1E,
0B,
00,
01,
E5,
EF,
F1,
EC,
EC,
EB,
E6,
EA,
F9,
07,
00,
0A,
10,
15,
F6,
00,
07,
0E,
0A,
0D,
1D,
0A,
14,
11,
04,
11,
0B,
04,
EE,
01,
FF,
F1,
F3,
F4,
EA,
ED,
F8,
0F,
0E,
11,
11,
05,
03,
0D,
07,
00,
F7,
F6,
11,
04,
06,
0E,
02,
07,
FE,
FD,
F8,
1C,
1B,
FF,
F8,
EF,
F2,
F3,
F8,
12,
1A,
15,
09,
0B,
04,
0C,
F9,
05,
F8,
E5,
F1,
F5,
0B,
33,
13,
12,
02,
FA,
F5,
22,
15,
03,
09,
0E,
F3,
DF,
02,
1D,
1E,
0D,
FD,
10,
08,
0C,
08,
06,
F2,
DC,
EF,
FD,
F6,
00,
0D,
F1,
F2,
01,
F4,
04,
15,
0E,
03,
07,
FB,
FE,
19,
23,
19,
FD,
06,
12,
09,
05,
0C,
04,
EE,
E2,
ED,
EB,
E7,
E3,
0C,
E8,
03,
F8,
FB,
09,
00,
04,
F5,
10,
06,
F7,
08,
11,
02,
F5,
06,
0E,
FF,
F9,
F5,
F7,
F1,
DB,
E2,
E9,
F9,
F3,
01,
FF,
F1,
F6,
0B,
F7,
06,
F5,
FD,
01,
F6,
EE,
F0,
FA,
00,
02,
0E,
0C,
00,
F2,
FA,
FE,
EC,
E8,
02,
F9,
F5,
EE,
FF,
FC,
F5,
F9,
12,
E4,
FE,
FC,
F0,
FE,
F0,
EF,
F6,
ED,
00,
0C,
08,
FE,
FB,
02,
03,
02,
FC,
F6,
F5,
F0,
F5,
F2,
E6,
FB,
FF,
03,
FB,
E2,
F5,
01,
F7,
EF,
EC,
E8,
F0,
FC,
F5,
FB,
FA,
00,
F7,
FF,
11,
17,
12,
05,
0C,
03,
FA,
F1,
E8,
FE,
01,
01,
FF,
F8,
0A,
05,
F0,
EE,
EE,
E7,
EA,
F6,
FB,
00,
02,
0F,
09,
FF,
04,
0F,
0F,
08,
0A,
12,
2E,
06,
02,
04,
FD,
04,
EB,
EE,
F0,
F2,
F1,
F1,
FE,
FD,
00,
ED,
09,
FB,
FF,
05,
0A,
09,
07,
0A,
0E,
F4,
E0,
EC,
04,
07,
04,
03,
FE,
FF,
02,
03,
E0,
DC,
E5,
07,
14,
0B,
1A,
0D,
03,
21,
26,
04,
1F,
28,
40,
42,
37,
0C,
03,
01,
EA,
06,
03,
00,
01,
01,
FD,
04,
0F,
13,
02,
01,
0A,
15,
13,
09,
09,
0F,
1F,
0D,
12,
20,
1E,
06,
01,
FB,
EB,
04,
04,
FE,
00,
01;
