memory_initialization_radix=16;
memory_initialization_vector=
FE,
FE,
FD,
01,
00,
02,
01,
FD,
00,
00,
FE,
03,
FE,
FB,
FC,
FD,
FC,
02,
FD,
FD,
FC,
FE,
FF,
04,
04,
FE,
FF,
FD,
FC,
FF,
FE,
04,
01,
FE,
F7,
F2,
FF,
08,
14,
21,
13,
16,
10,
E7,
EC,
F3,
13,
00,
02,
09,
01,
FA,
03,
04,
02,
02,
FE,
00,
FD,
E9,
E9,
07,
00,
FE,
FB,
F6,
E5,
F1,
03,
F8,
03,
02,
F4,
00,
01,
00,
07,
0F,
1E,
F8,
F1,
F6,
FC,
FE,
01,
FF,
E9,
DD,
FA,
08,
F8,
FF,
F0,
F6,
E3,
EE,
DE,
F1,
02,
EF,
F0,
EF,
EA,
F1,
F5,
0A,
0B,
1E,
08,
EF,
04,
FC,
FD,
FB,
E1,
D9,
F4,
F4,
E7,
EC,
DE,
E2,
DA,
D7,
E7,
F7,
F5,
F1,
EC,
FC,
FA,
FE,
0A,
19,
19,
24,
1B,
03,
F6,
16,
FD,
FC,
D3,
E8,
FC,
FA,
F4,
EC,
03,
05,
06,
0C,
06,
09,
13,
07,
FB,
06,
05,
03,
00,
04,
03,
05,
0B,
15,
02,
16,
FD,
EB,
1B,
F0,
02,
04,
ED,
F2,
FF,
01,
FF,
08,
13,
0F,
0E,
0C,
09,
10,
00,
0A,
08,
13,
19,
0D,
F8,
EF,
FD,
0A,
01,
E6,
14,
F7,
E0,
F2,
EA,
E6,
F3,
08,
0B,
0B,
FF,
0C,
FF,
0F,
04,
11,
10,
09,
07,
11,
1F,
12,
0B,
02,
02,
0E,
1C,
F4,
11,
FA,
E6,
F1,
F7,
EA,
00,
0E,
03,
08,
01,
05,
0A,
10,
00,
F9,
07,
05,
07,
0F,
F5,
03,
16,
1D,
FE,
EC,
05,
0A,
00,
E9,
E7,
F0,
F2,
F6,
02,
08,
FF,
02,
FB,
04,
09,
07,
F4,
F0,
FD,
06,
0A,
0F,
E7,
FF,
1A,
F0,
E6,
00,
03,
F9,
08,
F5,
F2,
F6,
EA,
00,
0D,
0F,
FA,
FB,
01,
FD,
02,
01,
F1,
FC,
FB,
FC,
F7,
01,
FD,
F6,
06,
E8,
CF,
F7,
01,
02,
F0,
F1,
D2,
E6,
F8,
0F,
14,
15,
11,
07,
0A,
F3,
F8,
F5,
F6,
FD,
F3,
FC,
FB,
FF,
FC,
F6,
EB,
C7,
DD,
D9,
01,
01,
F7,
FB,
D6,
DD,
F9,
0E,
11,
0E,
06,
0A,
05,
FB,
E7,
F8,
03,
03,
FD,
FE,
00,
0E,
0B,
0B,
10,
CC,
CA,
DD,
E5,
FD,
F4,
F2,
EA,
E7,
F1,
0A,
10,
15,
16,
0E,
05,
F6,
EF,
0A,
0A,
07,
06,
08,
05,
07,
0C,
0D,
F3,
E6,
D9,
EC,
F6,
FE,
E3,
E9,
E5,
F1,
F6,
09,
0F,
0E,
0E,
0F,
08,
F6,
ED,
04,
0D,
19,
14,
0D,
04,
04,
07,
00,
EC,
FD,
D9,
F4,
F6,
F4,
E7,
00,
E7,
EB,
F3,
14,
0D,
0F,
11,
08,
01,
F4,
F8,
0C,
0C,
17,
07,
02,
03,
03,
06,
FC,
DB,
F9,
F6,
E6,
06,
F1,
EE,
F7,
E0,
F7,
0C,
0D,
12,
0B,
0D,
0E,
02,
EE,
05,
16,
15,
0E,
FC,
FA,
0C,
FE,
FA,
ED,
D9,
F7,
EC,
E0,
02,
F1,
05,
EB,
E6,
F7,
06,
0A,
11,
1E,
1C,
0C,
FD,
FB,
0F,
11,
0F,
09,
FD,
FC,
09,
00,
02,
F0,
FF,
F4,
F5,
DC,
EC,
F9,
01,
F0,
F4,
EF,
02,
0C,
0E,
19,
11,
05,
0C,
03,
12,
0A,
03,
FB,
00,
FC,
08,
F7,
E1,
E2,
F9,
E7,
FD,
DD,
F0,
F5,
F4,
00,
F6,
ED,
F6,
FD,
0A,
0A,
02,
04,
FB,
F2,
02,
F9,
F1,
F2,
F6,
FC,
FE,
EF,
E3,
DC,
E9,
D4,
E6,
E7,
02,
0E,
07,
F0,
F4,
F7,
E8,
F1,
FA,
FE,
06,
03,
07,
F4,
FB,
F8,
F6,
F0,
F0,
F3,
F2,
EA,
EE,
DC,
E1,
E6,
EA,
E7,
F3,
09,
FA,
F0,
FD,
07,
ED,
F1,
00,
0B,
03,
07,
03,
FC,
F7,
FB,
F2,
F7,
EE,
F3,
F3,
F6,
06,
EA,
ED,
EB,
02,
05,
F3,
F2,
F1,
F1,
F4,
F3,
01,
06,
09,
08,
12,
0E,
0F,
08,
04,
FF,
FA,
F7,
F6,
FA,
F4,
10,
09,
EF,
04,
03,
F4,
00,
FC,
FD,
D7,
E0,
F7,
F3,
01,
0F,
0E,
0B,
0D,
09,
0D,
05,
04,
FF,
09,
FE,
FE,
06,
05,
17,
FA,
FA,
F1,
00,
E2,
FC,
00,
FC,
05,
E8,
F4,
08,
02,
06,
08,
04,
02,
01,
02,
02,
02,
08,
08,
F0,
FC,
FE,
0A,
FE,
FE,
FF,
DD,
F6,
F9,
02,
02,
FD,
06,
22,
19,
FD,
F3,
EE,
E2,
ED,
FC,
03,
D9,
EE,
FE,
03,
F9,
FA,
FE,
E2,
FC,
0A,
02,
F7,
DE,
FD,
FE,
FF,
01,
03,
01,
04,
25,
21,
13,
FA,
06,
0E,
F5,
E5,
FF,
F7,
F7,
E7,
EE,
EE,
F0,
E1,
F1,
02,
F6,
FC,
03,
00,
FD,
FF,
FD,
FF,
FE,
02,
FE,
F2,
04,
FF,
F9,
FC,
FC,
F8,
F2,
EC,
E9,
09,
FF,
F2,
06,
01,
0D,
02,
03,
EE,
03,
FE,
FC,
FD;
