memory_initialization_radix=16;
memory_initialization_vector=
01,
03,
FF,
01,
FD,
00,
04,
FD,
FF,
FC,
FE,
FC,
09,
09,
ED,
F7,
FF,
02,
02,
FE,
01,
04,
04,
02,
02,
00,
00,
FD,
00,
01,
01,
03,
06,
03,
10,
10,
14,
11,
08,
EB,
F1,
10,
19,
15,
DB,
E9,
1A,
22,
1F,
13,
08,
0C,
FD,
04,
FD,
01,
02,
FC,
05,
0E,
07,
FD,
0E,
0C,
F0,
DD,
DE,
EC,
F4,
05,
EF,
04,
13,
21,
20,
29,
11,
05,
0C,
16,
FB,
F4,
FF,
FF,
02,
04,
15,
25,
1E,
07,
01,
0A,
0E,
F8,
02,
F5,
F8,
F1,
EE,
FC,
09,
12,
10,
0D,
23,
1C,
01,
03,
FA,
08,
FE,
03,
FD,
0B,
13,
30,
17,
F9,
ED,
FF,
07,
0E,
0B,
F8,
F4,
F1,
FB,
00,
06,
02,
09,
04,
FF,
21,
0A,
07,
18,
14,
18,
F8,
02,
04,
12,
0A,
E7,
09,
F9,
FE,
00,
14,
F8,
FC,
F5,
F9,
FF,
FF,
04,
15,
0A,
0B,
0C,
0A,
04,
0C,
10,
FF,
29,
04,
02,
06,
14,
EF,
F9,
0B,
F5,
FD,
06,
03,
FE,
00,
FA,
F5,
FD,
07,
0A,
15,
21,
1B,
19,
07,
0B,
16,
24,
1F,
1F,
07,
04,
1F,
FE,
F0,
FB,
07,
07,
10,
FB,
0D,
05,
EF,
F6,
E8,
09,
14,
16,
1F,
16,
18,
16,
FC,
FF,
13,
11,
13,
0E,
06,
E6,
F5,
F3,
FB,
F5,
08,
F8,
04,
05,
00,
FA,
FD,
04,
F7,
04,
19,
18,
15,
0D,
07,
0A,
00,
04,
10,
28,
1B,
10,
0A,
03,
0A,
EC,
F4,
0D,
E9,
FD,
07,
0C,
07,
FF,
10,
0D,
04,
11,
0E,
0A,
03,
F3,
E0,
DC,
F2,
FA,
01,
07,
1C,
0D,
0D,
09,
07,
E4,
FC,
05,
F4,
FE,
01,
07,
11,
13,
0D,
0B,
15,
0F,
0B,
01,
E7,
E7,
D9,
D4,
D1,
D3,
D7,
E7,
0E,
0B,
09,
0C,
05,
28,
1E,
1D,
06,
00,
F1,
F8,
03,
06,
05,
09,
15,
15,
0F,
FF,
EB,
EC,
DC,
D6,
C3,
C8,
D0,
D2,
EE,
FA,
11,
01,
FF,
13,
1C,
13,
0A,
03,
04,
F7,
FB,
02,
03,
FA,
03,
12,
0C,
FC,
EA,
F6,
E8,
DF,
CC,
D4,
D2,
A1,
D3,
EF,
FE,
05,
FE,
14,
0E,
0F,
05,
06,
07,
F2,
F5,
F6,
F9,
F8,
05,
0F,
0D,
06,
FE,
FB,
F5,
F8,
EE,
D7,
CE,
AD,
D2,
D6,
E8,
09,
0D,
1F,
FF,
03,
F6,
07,
F9,
FA,
FA,
FC,
ED,
F4,
04,
06,
07,
00,
05,
08,
FD,
08,
0E,
FC,
F9,
E7,
DE,
DE,
EF,
06,
0D,
04,
DE,
FC,
01,
0C,
FC,
03,
FE,
F9,
ED,
E8,
EF,
FD,
F6,
F7,
0F,
23,
0B,
0D,
13,
09,
01,
F2,
EB,
EA,
DD,
FA,
07,
05,
F2,
03,
04,
00,
00,
0D,
01,
F3,
E6,
E4,
F5,
F1,
F2,
FB,
0C,
14,
1B,
0E,
02,
00,
F6,
F5,
E3,
E8,
DC,
04,
14,
FB,
0E,
0B,
06,
0A,
0F,
06,
07,
F7,
EF,
EE,
F2,
EF,
FF,
09,
16,
17,
1A,
18,
04,
FC,
FB,
01,
DD,
FC,
CF,
0F,
02,
03,
0F,
0E,
10,
0C,
0E,
06,
FE,
FE,
FE,
F4,
FB,
FD,
F7,
FE,
0C,
0C,
1D,
1D,
08,
F9,
F3,
ED,
FA,
FF,
E2,
09,
01,
0A,
14,
07,
02,
04,
0B,
15,
10,
01,
FA,
00,
F8,
EE,
F9,
FF,
01,
0D,
21,
16,
03,
F3,
F7,
0C,
06,
E3,
E9,
FF,
EA,
EB,
F6,
F2,
02,
05,
F5,
0E,
14,
02,
F6,
F2,
F8,
F8,
F9,
FB,
0B,
0D,
15,
0E,
FB,
02,
EF,
01,
FD,
F5,
0F,
05,
FE,
E3,
E4,
EA,
01,
F7,
FB,
FF,
01,
FB,
F1,
F5,
F5,
F5,
01,
04,
14,
0F,
0F,
13,
0E,
F6,
DF,
F3,
E6,
E6,
01,
08,
0E,
EF,
ED,
F9,
E8,
D8,
E6,
E9,
E8,
EF,
F7,
F3,
EB,
02,
07,
16,
1F,
12,
11,
13,
08,
05,
F0,
F3,
D9,
F7,
FF,
02,
01,
F9,
0E,
01,
F0,
E7,
EF,
EB,
F1,
FA,
F5,
FF,
00,
05,
0D,
10,
0A,
0E,
11,
16,
F7,
F0,
E9,
FF,
E4,
F2,
03,
FE,
00,
02,
21,
03,
F3,
ED,
F7,
F4,
F4,
FC,
01,
06,
0F,
08,
12,
17,
17,
FD,
08,
15,
FB,
F4,
FB,
FB,
E3,
F4,
FC,
FD,
FE,
02,
18,
0C,
18,
0F,
0E,
2A,
34,
2B,
2D,
44,
37,
22,
16,
1C,
16,
19,
33,
17,
17,
1C,
1C,
24,
F8,
FB,
04,
FD,
00,
FD,
FF,
FE,
07,
0F,
1B,
25,
35,
2E,
48,
3A,
43,
26,
2A,
3C,
39,
32,
46,
36,
1C,
20,
1F,
FB,
01,
04,
02,
FE,
FE,
FF,
00,
0C,
08,
0D,
0D,
10,
21,
2B,
21,
26,
27,
2A,
04,
15,
18,
0B,
08,
04,
FD,
0B,
1C,
FC,
03,
FC,
03;
