memory_initialization_radix=16;
memory_initialization_vector=
04,
01,
FF,
FD,
FE,
02,
FE,
00,
04,
00,
FC,
04,
03,
08,
05,
02,
FF,
FF,
FE,
00,
04,
FC,
04,
02,
FF,
FD,
00,
FF,
FE,
FD,
02,
01,
03,
05,
0C,
0C,
07,
08,
04,
14,
1A,
07,
F7,
26,
26,
2A,
15,
1B,
0F,
04,
0E,
0E,
FE,
04,
FC,
02,
FD,
FE,
05,
1C,
18,
0B,
0F,
1B,
28,
37,
35,
30,
1A,
0E,
10,
2A,
22,
19,
31,
1C,
1F,
1F,
16,
1E,
17,
09,
03,
FD,
FE,
00,
1A,
1F,
0F,
FC,
18,
05,
14,
29,
1C,
12,
18,
20,
FE,
0F,
06,
03,
14,
0A,
ED,
08,
13,
2B,
13,
F6,
F2,
FC,
03,
FC,
14,
E2,
FE,
12,
17,
13,
1B,
17,
20,
1D,
19,
10,
19,
09,
14,
16,
06,
00,
F8,
DD,
DD,
EB,
E6,
F6,
10,
01,
01,
FD,
29,
09,
0F,
EB,
F3,
01,
EA,
E4,
FD,
06,
02,
03,
06,
04,
05,
FC,
01,
08,
07,
FE,
ED,
E3,
FD,
0A,
10,
F8,
FD,
EC,
F4,
F7,
F3,
D3,
E9,
F6,
F1,
F7,
05,
07,
04,
FF,
02,
05,
05,
FC,
F5,
F9,
F4,
E5,
E7,
F7,
EF,
21,
EF,
1E,
FD,
E1,
E5,
E4,
F1,
DE,
F3,
F3,
01,
F8,
FF,
03,
08,
08,
09,
09,
00,
EA,
F9,
F4,
F1,
00,
F8,
E8,
F0,
0B,
EF,
14,
E2,
EB,
E8,
F8,
F8,
E2,
01,
FC,
FD,
F6,
01,
01,
00,
16,
10,
FF,
00,
FE,
F1,
01,
F4,
FE,
FC,
F6,
EE,
F5,
0A,
0D,
F2,
DC,
FC,
11,
DF,
F3,
01,
FE,
00,
FC,
06,
FC,
02,
15,
13,
12,
0B,
F8,
EF,
FB,
F7,
FB,
FB,
00,
F1,
09,
03,
E7,
F5,
E8,
D9,
05,
F1,
06,
0F,
03,
03,
F5,
00,
04,
0C,
0F,
22,
0B,
05,
F4,
FC,
02,
FC,
FF,
FE,
16,
00,
E8,
FD,
F5,
F1,
E6,
E9,
02,
06,
0F,
0E,
09,
FB,
F3,
F1,
F3,
03,
11,
1B,
0B,
02,
F3,
FE,
08,
0A,
0E,
0D,
1C,
30,
27,
1F,
FB,
FA,
E5,
F1,
15,
10,
16,
13,
01,
F3,
FF,
EC,
F5,
F9,
0E,
0D,
FB,
FB,
01,
F1,
03,
03,
10,
12,
24,
24,
0E,
13,
F1,
1C,
E7,
DE,
13,
FC,
0C,
08,
FF,
00,
FD,
EB,
FC,
0C,
19,
11,
04,
01,
F4,
F5,
07,
05,
0A,
13,
17,
03,
0B,
1E,
1E,
FB,
EC,
DD,
08,
EE,
FD,
0D,
FC,
F5,
F5,
FC,
07,
07,
14,
16,
0D,
09,
F4,
00,
FE,
07,
05,
07,
EF,
F2,
0D,
33,
13,
F8,
F7,
F6,
F7,
EF,
FF,
05,
FA,
05,
03,
03,
0C,
0D,
19,
1A,
02,
0E,
F6,
FC,
02,
FD,
F0,
E2,
D9,
F3,
07,
F7,
24,
E8,
F4,
FA,
F6,
F5,
FF,
09,
F9,
FE,
0C,
12,
0F,
06,
0C,
12,
F8,
05,
01,
06,
F6,
E7,
E4,
E5,
F7,
FC,
20,
08,
1C,
04,
F3,
F3,
02,
F3,
F6,
03,
FF,
05,
08,
0F,
FF,
03,
0A,
09,
01,
FB,
F9,
FB,
F7,
EF,
EE,
EF,
ED,
F6,
15,
04,
19,
FF,
FE,
EA,
F9,
F5,
F3,
0C,
07,
F5,
FB,
09,
F7,
F8,
07,
07,
07,
03,
0B,
04,
FC,
F4,
EA,
F8,
01,
01,
20,
F6,
14,
0F,
E7,
E7,
E4,
F4,
EE,
FA,
FD,
F7,
07,
07,
F4,
FB,
0D,
00,
0C,
13,
12,
0E,
09,
F6,
F7,
19,
29,
00,
2D,
2C,
02,
00,
E9,
FB,
F2,
03,
05,
08,
0B,
00,
02,
03,
FE,
06,
0F,
13,
16,
17,
0C,
14,
09,
08,
0E,
1D,
2C,
17,
2B,
12,
0D,
0B,
0E,
11,
14,
14,
06,
12,
1D,
10,
0F,
02,
05,
0A,
17,
16,
0E,
10,
17,
12,
0C,
0A,
07,
11,
19,
11,
0A,
E5,
FE,
0C,
07,
03,
21,
15,
0B,
09,
0B,
09,
0A,
06,
0C,
0A,
0E,
09,
03,
FA,
FF,
10,
F6,
11,
03,
FD,
13,
0F,
09,
E5,
FE,
02,
00,
1D,
15,
FF,
05,
EC,
F4,
09,
03,
F8,
F6,
03,
01,
F9,
FF,
FF,
00,
0E,
09,
13,
16,
2F,
1D,
1B,
01,
E8,
03,
FF,
02,
FF,
E4,
E9,
DC,
E6,
E8,
F9,
F8,
FB,
FC,
00,
F4,
FB,
FB,
00,
FC,
12,
16,
0C,
0A,
08,
12,
0E,
0F,
09,
FE,
02,
03,
18,
E0,
DA,
F7,
0A,
FF,
FE,
FC,
FA,
F9,
FF,
07,
09,
06,
0B,
13,
0B,
19,
1E,
0D,
EB,
EF,
FC,
07,
06,
FC,
FF,
FE,
02,
0D,
28,
28,
18,
0A,
FD,
06,
0A,
0F,
0A,
01,
17,
08,
0E,
15,
12,
FD,
20,
19,
FA,
14,
1A,
F2,
04,
02,
FC,
02,
00,
02,
EA,
D2,
F3,
FD,
F2,
EC,
FE,
0D,
09,
F0,
14,
0F,
09,
ED,
06,
07,
02,
EC,
EB,
DB,
FF,
02,
FE,
FD;
