memory_initialization_radix=16;
memory_initialization_vector=
00,
01,
01,
FD,
01,
00,
FF,
FF,
FE,
01,
FC,
FD,
0C,
08,
00,
00,
03,
01,
03,
FE,
03,
FF,
03,
00,
FC,
00,
00,
02,
FE,
FE,
00,
03,
04,
03,
0F,
0F,
12,
12,
1E,
1F,
21,
2B,
FD,
0D,
08,
1E,
1C,
16,
17,
20,
1C,
10,
01,
01,
01,
01,
01,
00,
03,
02,
0A,
0A,
15,
20,
0A,
F6,
07,
1F,
0D,
0A,
0B,
13,
12,
15,
1B,
15,
0C,
12,
1A,
0C,
FE,
FA,
01,
FC,
FD,
FF,
E7,
00,
03,
1C,
22,
29,
20,
0E,
0F,
20,
11,
11,
10,
FF,
FC,
F6,
04,
08,
0B,
15,
10,
19,
FD,
FA,
02,
03,
02,
05,
F6,
1C,
1F,
1A,
F9,
11,
13,
10,
18,
0B,
07,
0A,
09,
04,
FF,
FF,
F6,
01,
FA,
F6,
F3,
EC,
EA,
F2,
0D,
0F,
04,
01,
F4,
17,
1C,
EE,
FB,
10,
03,
06,
0F,
0E,
0A,
0B,
0D,
09,
F2,
EF,
E9,
FF,
FF,
EC,
DE,
DB,
EF,
EE,
0F,
04,
FE,
FE,
E7,
E9,
F0,
E4,
ED,
FC,
FC,
0A,
07,
0D,
03,
08,
07,
0B,
F7,
F0,
EE,
EF,
F4,
ED,
E6,
F1,
ED,
F2,
F2,
05,
02,
F8,
DE,
E5,
EE,
F9,
ED,
F0,
F9,
FF,
07,
03,
F7,
FF,
03,
06,
FA,
F3,
F6,
F8,
F7,
F2,
F1,
F5,
EC,
D6,
F9,
FF,
FD,
F5,
F2,
08,
F9,
E9,
EC,
F2,
F6,
F6,
FC,
F8,
F5,
09,
02,
FB,
FD,
F6,
F8,
FE,
FE,
0F,
F8,
E3,
EE,
F9,
10,
FF,
FC,
F8,
08,
05,
D9,
DA,
02,
FD,
08,
06,
04,
FF,
03,
0A,
FE,
F7,
FB,
F8,
EF,
00,
0A,
02,
FA,
FD,
F1,
FA,
F2,
E1,
F5,
FA,
F7,
F6,
CE,
D8,
F3,
01,
03,
09,
0F,
FF,
07,
03,
FB,
E4,
EE,
FD,
01,
FF,
07,
FE,
FD,
19,
FA,
E2,
E2,
E6,
F5,
F5,
D8,
D4,
D5,
E4,
FB,
02,
07,
0E,
07,
FD,
09,
08,
FB,
DC,
F2,
01,
06,
0A,
0F,
10,
03,
16,
14,
F4,
02,
E2,
FD,
F6,
E0,
DB,
EA,
F9,
0C,
05,
02,
10,
09,
0C,
02,
08,
02,
ED,
F3,
09,
FF,
0A,
11,
16,
0F,
28,
10,
E3,
E0,
DB,
07,
FC,
E9,
D8,
F1,
F2,
05,
13,
12,
15,
0F,
07,
02,
04,
FF,
FE,
04,
02,
0A,
09,
F8,
F8,
12,
12,
F0,
E1,
D3,
F5,
FA,
FD,
EC,
E1,
E3,
ED,
F4,
07,
10,
0F,
08,
0C,
01,
03,
00,
0E,
09,
05,
0A,
F8,
EC,
F9,
02,
00,
F0,
05,
DE,
EF,
F9,
08,
FF,
F2,
E1,
E2,
EA,
FA,
0A,
05,
0D,
17,
18,
0D,
09,
FB,
03,
FD,
FE,
EF,
EF,
F6,
05,
02,
F2,
0B,
FE,
E9,
F6,
0B,
14,
F7,
E4,
D1,
D5,
EB,
05,
04,
0F,
2A,
1E,
09,
01,
F2,
F3,
F6,
04,
F0,
E8,
DF,
F8,
01,
04,
18,
E1,
E5,
02,
0E,
12,
F0,
E9,
DB,
DD,
FA,
02,
FE,
11,
1B,
11,
0B,
FA,
F0,
F6,
FD,
F4,
02,
EB,
F8,
F6,
05,
FB,
E9,
E5,
DB,
02,
0B,
13,
F1,
EB,
EF,
EE,
F5,
F7,
FC,
0B,
12,
08,
08,
F3,
F9,
FE,
04,
FE,
0C,
02,
FB,
F3,
FF,
ED,
F0,
DF,
DD,
04,
EF,
06,
F5,
FC,
01,
F3,
FA,
F7,
FB,
FB,
F6,
FA,
F5,
F6,
FA,
07,
10,
1A,
1A,
07,
08,
F8,
F7,
E7,
DF,
E2,
E2,
FC,
F7,
00,
03,
18,
06,
FD,
F8,
EE,
F6,
F5,
EA,
EB,
F9,
06,
09,
0D,
11,
23,
1B,
09,
F8,
F1,
EC,
E8,
E3,
F4,
FC,
01,
F3,
0C,
0A,
0E,
FF,
04,
F9,
EC,
E7,
EA,
E9,
F1,
02,
0C,
10,
0C,
1D,
1A,
0A,
FE,
DF,
E3,
DF,
D8,
DD,
EB,
FC,
02,
0C,
01,
FE,
07,
FB,
EF,
F5,
EB,
E4,
F2,
00,
06,
14,
17,
1C,
11,
11,
11,
FC,
EC,
D8,
E6,
EE,
F3,
EA,
FB,
FF,
02,
01,
04,
F4,
EF,
FD,
FC,
08,
15,
02,
04,
04,
04,
17,
18,
0D,
0E,
14,
19,
F1,
EF,
DC,
EF,
DE,
F7,
F1,
F9,
04,
02,
FC,
05,
02,
03,
02,
11,
1E,
22,
21,
1F,
11,
15,
17,
11,
0C,
11,
09,
FF,
E9,
E9,
E2,
EB,
EE,
DC,
EE,
F8,
00,
03,
01,
17,
E0,
E5,
01,
13,
17,
27,
1B,
1B,
04,
0A,
13,
00,
F4,
06,
07,
00,
04,
F9,
F0,
F6,
F6,
F8,
F8,
F8,
FD,
03,
02,
00,
0D,
1A,
0A,
FF,
10,
07,
01,
07,
0F,
11,
04,
0B,
02,
02,
19,
12,
F8,
F7,
FA,
EC,
09,
08,
FE,
04,
FC,
00,
00,
01,
03,
F3,
E8,
0D,
11,
0A,
F6,
F7,
07,
FE,
E7,
09,
0E,
FD,
F0,
0B,
18,
FF,
EB,
EE,
00,
FD,
03,
04,
FD;
